{
  "version": "1.0",
  "truncation": null,
  "padding": null,
  "added_tokens": [
    {
      "id": 0,
      "content": "[PAD]",
      "single_word": false,
      "lstrip": false,
      "rstrip": false,
      "normalized": false,
      "special": true
    },
    {
      "id": 1,
      "content": "[UNK]",
      "single_word": false,
      "lstrip": false,
      "rstrip": false,
      "normalized": false,
      "special": true
    },
    {
      "id": 2,
      "content": "[CLS]",
      "single_word": false,
      "lstrip": false,
      "rstrip": false,
      "normalized": false,
      "special": true
    },
    {
      "id": 3,
      "content": "[SEP]",
      "single_word": false,
      "lstrip": false,
      "rstrip": false,
      "normalized": false,
      "special": true
    },
    {
      "id": 4,
      "content": "[MASK]",
      "single_word": false,
      "lstrip": false,
      "rstrip": false,
      "normalized": false,
      "special": true
    }
  ],
  "normalizer": null,
  "pre_tokenizer": {
    "type": "ByteLevel",
    "add_prefix_space": true,
    "trim_offsets": true,
    "use_regex": true
  },
  "post_processor": null,
  "decoder": {
    "type": "ByteLevel",
    "add_prefix_space": true,
    "trim_offsets": true,
    "use_regex": true
  },
  "model": {
    "type": "BPE",
    "dropout": null,
    "unk_token": "[UNK]",
    "continuing_subword_prefix": null,
    "end_of_word_suffix": null,
    "fuse_unk": false,
    "byte_fallback": false,
    "ignore_merges": false,
    "vocab": {
      "[PAD]": 0,
      "[UNK]": 1,
      "[CLS]": 2,
      "[SEP]": 3,
      "[MASK]": 4,
      "!": 5,
      "\"": 6,
      "#": 7,
      "$": 8,
      "%": 9,
      "&": 10,
      "'": 11,
      "(": 12,
      ")": 13,
      "*": 14,
      "+": 15,
      ",": 16,
      "-": 17,
      ".": 18,
      "/": 19,
      "0": 20,
      "1": 21,
      "2": 22,
      "3": 23,
      "4": 24,
      "5": 25,
      "6": 26,
      "7": 27,
      "8": 28,
      "9": 29,
      ":": 30,
      ";": 31,
      "<": 32,
      "=": 33,
      ">": 34,
      "?": 35,
      "@": 36,
      "A": 37,
      "B": 38,
      "C": 39,
      "D": 40,
      "E": 41,
      "F": 42,
      "G": 43,
      "H": 44,
      "I": 45,
      "J": 46,
      "K": 47,
      "L": 48,
      "M": 49,
      "N": 50,
      "O": 51,
      "P": 52,
      "Q": 53,
      "R": 54,
      "S": 55,
      "T": 56,
      "U": 57,
      "V": 58,
      "W": 59,
      "X": 60,
      "Y": 61,
      "Z": 62,
      "[": 63,
      "\\": 64,
      "]": 65,
      "^": 66,
      "_": 67,
      "`": 68,
      "a": 69,
      "b": 70,
      "c": 71,
      "d": 72,
      "e": 73,
      "f": 74,
      "g": 75,
      "h": 76,
      "i": 77,
      "j": 78,
      "k": 79,
      "l": 80,
      "m": 81,
      "n": 82,
      "o": 83,
      "p": 84,
      "q": 85,
      "r": 86,
      "s": 87,
      "t": 88,
      "u": 89,
      "v": 90,
      "w": 91,
      "x": 92,
      "y": 93,
      "z": 94,
      "{": 95,
      "|": 96,
      "}": 97,
      "~": 98,
      "¡": 99,
      "¢": 100,
      "£": 101,
      "¤": 102,
      "¥": 103,
      "¦": 104,
      "§": 105,
      "¨": 106,
      "©": 107,
      "ª": 108,
      "«": 109,
      "¬": 110,
      "®": 111,
      "¯": 112,
      "°": 113,
      "±": 114,
      "²": 115,
      "³": 116,
      "´": 117,
      "µ": 118,
      "¶": 119,
      "·": 120,
      "¸": 121,
      "¹": 122,
      "º": 123,
      "»": 124,
      "¼": 125,
      "½": 126,
      "¾": 127,
      "¿": 128,
      "Â": 129,
      "Ã": 130,
      "Ä": 131,
      "Å": 132,
      "Æ": 133,
      "Ç": 134,
      "È": 135,
      "É": 136,
      "Ê": 137,
      "Ë": 138,
      "Ì": 139,
      "Í": 140,
      "Î": 141,
      "Ï": 142,
      "Ð": 143,
      "Ñ": 144,
      "Ò": 145,
      "Ó": 146,
      "Ô": 147,
      "Õ": 148,
      "Ö": 149,
      "×": 150,
      "Ø": 151,
      "Ù": 152,
      "Ú": 153,
      "Û": 154,
      "Ü": 155,
      "Ý": 156,
      "ß": 157,
      "à": 158,
      "á": 159,
      "â": 160,
      "ã": 161,
      "ä": 162,
      "å": 163,
      "æ": 164,
      "ç": 165,
      "è": 166,
      "é": 167,
      "ê": 168,
      "ë": 169,
      "ì": 170,
      "î": 171,
      "ï": 172,
      "ð": 173,
      "ô": 174,
      "Ā": 175,
      "ā": 176,
      "Ă": 177,
      "ă": 178,
      "Ą": 179,
      "ą": 180,
      "Ć": 181,
      "ć": 182,
      "Ĉ": 183,
      "ĉ": 184,
      "Ċ": 185,
      "ċ": 186,
      "Č": 187,
      "Ď": 188,
      "ď": 189,
      "Đ": 190,
      "đ": 191,
      "Ē": 192,
      "ē": 193,
      "Ĕ": 194,
      "ĕ": 195,
      "Ė": 196,
      "ė": 197,
      "Ę": 198,
      "ę": 199,
      "Ě": 200,
      "ě": 201,
      "Ĝ": 202,
      "ĝ": 203,
      "Ğ": 204,
      "ğ": 205,
      "Ġ": 206,
      "ġ": 207,
      "Ģ": 208,
      "ģ": 209,
      "Ĥ": 210,
      "ĥ": 211,
      "Ħ": 212,
      "ħ": 213,
      "Ĩ": 214,
      "ĩ": 215,
      "Ī": 216,
      "ī": 217,
      "Ĭ": 218,
      "ĭ": 219,
      "Į": 220,
      "į": 221,
      "İ": 222,
      "ı": 223,
      "Ĳ": 224,
      "ĳ": 225,
      "Ĵ": 226,
      "ĵ": 227,
      "Ķ": 228,
      "ķ": 229,
      "ĸ": 230,
      "Ĺ": 231,
      "ĺ": 232,
      "Ļ": 233,
      "ļ": 234,
      "Ľ": 235,
      "ľ": 236,
      "Ŀ": 237,
      "ŀ": 238,
      "Ł": 239,
      "ł": 240,
      "Ń": 241,
      "Ġt": 242,
      "Ġa": 243,
      "he": 244,
      "in": 245,
      "on": 246,
      "re": 247,
      "Ġthe": 248,
      "ti": 249,
      "Ġs": 250,
      "Ġâ": 251,
      "Ġo": 252,
      "er": 253,
      "Ġc": 254,
      "Ġ(": 255,
      "is": 256,
      "ĠĊ": 257,
      "or": 258,
      "en": 259,
      "Ġf": 260,
      "Ġp": 261,
      "Ġw": 262,
      "at": 263,
      "nd": 264,
      "Ġof": 265,
      "es": 266,
      "tion": 267,
      "al": 268,
      "it": 269,
      "Ġb": 270,
      "ro": 271,
      "Ġin": 272,
      "ed": 273,
      "ĠâĪ": 274,
      "Ġd": 275,
      "Ġand": 276,
      "ing": 277,
      "an": 278,
      "ar": 279,
      "Ġn": 280,
      "Ġm": 281,
      "le": 282,
      "Ġ1": 283,
      "Ġis": 284,
      "Ġe": 285,
      "Ġth": 286,
      "ĠT": 287,
      "Ġ=": 288,
      "ĠÎ": 289,
      "Ġ.": 290,
      "ic": 291,
      "Ġto": 292,
      "Ġ,": 293,
      "Ġ2": 294,
      "Ġ)": 295,
      "et": 296,
      "om": 297,
      "ĠS": 298,
      "as": 299,
      "Ġre": 300,
      "ĠA": 301,
      "ation": 302,
      "ec": 303,
      "Ġthat": 304,
      "Ġfor": 305,
      "Ġg": 306,
      "âĪ": 307,
      "Ġi": 308,
      "ly": 309,
      "Ġh": 310,
      "Ġl": 311,
      "st": 312,
      "ent": 313,
      "ac": 314,
      "ve": 315,
      "ĠP": 316,
      "ll": 317,
      "ĠC": 318,
      "ĠI": 319,
      "Ġu": 320,
      "Ġv": 321,
      "Ġcon": 322,
      "ĠâĪĴ": 323,
      "Ġpro": 324,
      "ith": 325,
      "Ġwe": 326,
      "ce": 327,
      "ow": 328,
      "ĠThe": 329,
      "Ġ[": 330,
      "si": 331,
      "Ġ0": 332,
      "ĠL": 333,
      "im": 334,
      "ra": 335,
      "ĠF": 336,
      "Ġon": 337,
      "ou": 338,
      "ot": 339,
      "âĢ": 340,
      "ĠM": 341,
      "ĠÏ": 342,
      "Ġsu": 343,
      "Ġbe": 344,
      "Ġk": 345,
      "Ġ+": 346,
      "ut": 347,
      "se": 348,
      "Ġan": 349,
      "Ġas": 350,
      "ĠG": 351,
      "qu": 352,
      "od": 353,
      "ul": 354,
      "ĠB": 355,
      "ĠR": 356,
      "Ġwith": 357,
      "Ġâī": 358,
      "ri": 359,
      "ver": 360,
      "ĠW": 361,
      "ol": 362,
      "âĪĴ": 363,
      "am": 364,
      "ĠâĪĪ": 365,
      "Ġex": 366,
      "ab": 367,
      "Ġst": 368,
      "Ġby": 369,
      "ĠN": 370,
      "ĠE": 371,
      "um": 372,
      "ĠH": 373,
      "em": 374,
      "ore": 375,
      "ĠD": 376,
      "ĠÂ": 377,
      "omp": 378,
      "ch": 379,
      "Ġ|": 380,
      "ur": 381,
      "pp": 382,
      "ig": 383,
      "Ġx": 384,
      "Ġ3": 385,
      "ĠX": 386,
      "Ġare": 387,
      "Ġal": 388,
      "il": 389,
      "res": 390,
      "ity": 391,
      "ĠâĢ": 392,
      "tic": 393,
      "Ġr": 394,
      "el": 395,
      ").": 396,
      "ts": 397,
      "Ġde": 398,
      "ĠIn": 399,
      "),": 400,
      "ter": 401,
      "Ĺı": 402,
      "uc": 403,
      "ate": 404,
      "Ġit": 405,
      "ge": 406,
      "ĠO": 407,
      "Ġâī¤": 408,
      "Ġcomp": 409,
      "ain": 410,
      "un": 411,
      "Ġ4": 412,
      "og": 413,
      "rou": 414,
      "Ġwhe": 415,
      "Ġwh": 416,
      "ir": 417,
      "Ġcan": 418,
      "00": 419,
      "iv": 420,
      "Ġthis": 421,
      "id": 422,
      "lem": 423,
      "ĠWe": 424,
      "pl": 425,
      "ist": 426,
      "Ġ:": 427,
      "if": 428,
      "te": 429,
      "iz": 430,
      "rom": 431,
      "per": 432,
      "her": 433,
      "tive": 434,
      "ect": 435,
      "Ġha": 436,
      "orm": 437,
      "fin": 438,
      "ĠâĹı": 439,
      "ĠÂ·": 440,
      "ess": 441,
      "ma": 442,
      "Ġpo": 443,
      "Ġma": 444,
      "ure": 445,
      "Ġall": 446,
      "ĠV": 447,
      "ĠK": 448,
      "ich": 449,
      "Ġor": 450,
      "oll": 451,
      "ction": 452,
      "ph": 453,
      "Ġfrom": 454,
      "ach": 455,
      "us": 456,
      "Ġle": 457,
      "Ġj": 458,
      "Ġ{": 459,
      "Ġus": 460,
      "roup": 461,
      "Ġif": 462,
      "Ġnot": 463,
      "Ġï": 464,
      "Ġ6": 465,
      "ĨĴ": 466,
      "Ġset": 467,
      "ari": 468,
      "Ġat": 469,
      "ĠPro": 470,
      "ĠJ": 471,
      "Ġse": 472,
      "oc": 473,
      "Ġwhich": 474,
      "Ġres": 475,
      "sion": 476,
      "ĠU": 477,
      "de": 478,
      "Ġy": 479,
      "Ġpar": 480,
      "Ġhave": 481,
      "Ġ5": 482,
      "01": 483,
      "tim": 484,
      "Ġsub": 485,
      "end": 486,
      "Ġapp": 487,
      "Ġsh": 488,
      "âĢ²": 489,
      "ition": 490,
      "ations": 491,
      "der": 492,
      "ollow": 493,
      "gor": 494,
      "ence": 495,
      "ĠTh": 496,
      "ally": 497,
      "Ġfollow": 498,
      "Ġwhere": 499,
      "ren": 500,
      "ithm": 501,
      "of": 502,
      "Ġsp": 503,
      "Ġch": 504,
      "Ġprob": 505,
      "all": 506,
      "os": 507,
      "Ġcl": 508,
      "ĠâĬ": 509,
      "ad": 510,
      "able": 511,
      "gorithm": 512,
      "ĠZ": 513,
      "ound": 514,
      "Ġun": 515,
      "ase": 516,
      "Ġsuch": 517,
      "ated": 518,
      "Ġï£": 519,
      "tain": 520,
      "act": 521,
      "ĠÎ±": 522,
      "ener": 523,
      "ution": 524,
      "mp": 525,
      "Ġthen": 526,
      "ran": 527,
      "th": 528,
      "Ġq": 529,
      "str": 530,
      "âĢĵ": 531,
      "Ġne": 532,
      "ents": 533,
      "ple": 534,
      "duc": 535,
      "ĠY": 536,
      "orem": 537,
      "ant": 538,
      "Ġob": 539,
      "form": 540,
      "Ġver": 541,
      "ay": 542,
      "unction": 543,
      "yp": 544,
      "ber": 545,
      "Ġdefin": 546,
      "ite": 547,
      "ine": 548,
      "ĠLet": 549,
      "raph": 550,
      "ary": 551,
      "ection": 552,
      ".,": 553,
      "ies": 554,
      "âĪĹ": 555,
      "ther": 556,
      "erm": 557,
      "Ġgroup": 558,
      "Ġmod": 559,
      "Ġâī¥": 560,
      "Ġfunction": 561,
      "ĠâĨĴ": 562,
      "ĠFor": 563,
      "ct": 564,
      "Ġeach": 565,
      "Ġlog": 566,
      "Ġalgorithm": 567,
      "alu": 568,
      "Ġdist": 569,
      "fe": 570,
      "ree": 571,
      "Ġthere": 572,
      "igh": 573,
      "rib": 574,
      "ram": 575,
      "ĠÏĥ": 576,
      "red": 577,
      "ges": 578,
      "ance": 579,
      "Ġgener": 580,
      "Ġhas": 581,
      "Ġar": 582,
      "Î±": 583,
      "Ġco": 584,
      "ati": 585,
      "ork": 586,
      "ÌĤ": 587,
      "Ġ>": 588,
      "ome": 589,
      "Ġany": 590,
      "ĠâĢ²": 591,
      "ond": 592,
      "Ġbound": 593,
      "ff": 594,
      "feren": 595,
      "Ġab": 596,
      "ĠQ": 597,
      "Ġone": 598,
      "ĠLem": 599,
      "ĠÎ»": 600,
      "Ġsy": 601,
      "ose": 602,
      "Ġad": 603,
      "Ġfin": 604,
      "Ġtw": 605,
      "Ġshow": 606,
      "and": 607,
      "Ġqu": 608,
      "Ġexp": 609,
      "est": 610,
      "Ġsim": 611,
      "int": 612,
      "Ġ7": 613,
      "ĠLemma": 614,
      "sum": 615,
      "ime": 616,
      "Ġresul": 617,
      "abil": 618,
      "Ġz": 619,
      "so": 620,
      "ĠTheorem": 621,
      "Ġ]": 622,
      "ers": 623,
      "Ġsam": 624,
      "ill": 625,
      "Ġpa": 626,
      "Ġnum": 627,
      "ĠThis": 628,
      "Ġmat": 629,
      "xim": 630,
      "Ġtwo": 631,
      "Ġgraph": 632,
      "Ġvari": 633,
      "sition": 634,
      "etw": 635,
      "Ġ<": 636,
      "Ġ201": 637,
      "Ġno": 638,
      "ince": 639,
      "ĠâĢľ": 640,
      "Ġ}": 641,
      "ric": 642,
      "ĠÎ²": 643,
      "ds": 644,
      "to": 645,
      "))": 646,
      "âĪĪ": 647,
      "].": 648,
      "Ġnumber": 649,
      "Ìĥ": 650,
      "âĢĻ": 651,
      "vi": 652,
      "Ġproblem": 653,
      "ous": 654,
      "ors": 655,
      "Ġgiv": 656,
      "ap": 657,
      "Ġsome": 658,
      "Î¸": 659,
      "gram": 660,
      "rans": 661,
      "ak": 662,
      "gh": 663,
      "Ġequ": 664,
      "Ġonly": 665,
      "cl": 666,
      "irst": 667,
      "Ġcase": 668,
      "Ġden": 669,
      "Ġtime": 670,
      "cess": 671,
      "],": 672,
      "ace": 673,
      "Ġra": 674,
      "Ġtyp": 675,
      "..": 676,
      "ort": 677,
      "Ġstr": 678,
      "ĠÂµ": 679,
      "atis": 680,
      "ble": 681,
      "dition": 682,
      "ĠÎĵ": 683,
      "Ġnon": 684,
      "ard": 685,
      "ĠÎ¸": 686,
      "ĠâĪĹ": 687,
      "ability": 688,
      "age": 689,
      "10": 690,
      "ĠÃ": 691,
      "ode": 692,
      "op": 693,
      "Ġmodel": 694,
      "ang": 695,
      "Ġcont": 696,
      "ust": 697,
      "ote": 698,
      "Ġform": 699,
      "ular": 700,
      "ĠÎ´": 701,
      "Ġour": 702,
      "Ġfollowing": 703,
      "Ġalso": 704,
      "ass": 705,
      "ix": 706,
      "Ġwill": 707,
      "Ġed": 708,
      "resent": 709,
      "Ġme": 710,
      "ast": 711,
      "Ġen": 712,
      "ĠÎ³": 713,
      "Ġcor": 714,
      "Ġop": 715,
      "Ġinter": 716,
      "Ġvalu": 717,
      "Ġ8": 718,
      "Ġappro": 719,
      "Ġ-": 720,
      "Ġcom": 721,
      "Ġimp": 722,
      "ting": 723,
      "Ġes": 724,
      "ĠThen": 725,
      "ates": 726,
      "ath": 727,
      "Ġmin": 728,
      "ost": 729,
      "Ġac": 730,
      "Ġdo": 731,
      "ign": 732,
      "Ġconst": 733,
      "very": 734,
      "ical": 735,
      "âĢĿ": 736,
      "ire": 737,
      "ĠIf": 738,
      "11": 739,
      "uct": 740,
      "Ġ10": 741,
      "Ġdes": 742,
      "Ġover": 743,
      "ata": 744,
      "Ġ/": 745,
      "Ġpre": 746,
      "ud": 747,
      "osition": 748,
      "Ġ),": 749,
      "ĠAs": 750,
      "Ġsc": 751,
      "Ġcomput": 752,
      "pend": 753,
      "ĠÏģ": 754,
      "lement": 755,
      "Ħĵ": 756,
      "Ġdistrib": 757,
      "Ġrep": 758,
      "Ġrel": 759,
      "ĠÏĦ": 760,
      "ong": 761,
      "our": 762,
      "Ġestim": 763,
      "ise": 764,
      "enti": 765,
      "Ġother": 766,
      "Ġassum": 767,
      "ial": 768,
      "ĠCon": 769,
      "Ġhe": 770,
      "Ġfirst": 771,
      "Ġdif": 772,
      "Ġwhen": 773,
      "ÌĦ": 774,
      "sider": 775,
      "Ġgiven": 776,
      "Î»": 777,
      "ser": 778,
      "Ġfollows": 779,
      "ty": 780,
      "Ġ).": 781,
      "ĠÏĢ": 782,
      "Ġsol": 783,
      "Ġmet": 784,
      "Ġper": 785,
      "ative": 786,
      "Ġso": 787,
      "ue": 788,
      "ep": 789,
      "ðĿ": 790,
      "sis": 791,
      "12": 792,
      "Ġcomple": 793,
      "Ġev": 794,
      "ication": 795,
      "stem": 796,
      "Ġuse": 797,
      "ality": 798,
      "Ġits": 799,
      "ie": 800,
      "Ġdis": 801,
      "ĠFig": 802,
      "ack": 803,
      "Ġtrans": 804,
      "âĹı": 805,
      "ize": 806,
      "ment": 807,
      "Î²": 808,
      "tex": 809,
      "Ġlet": 810,
      "Ġ19": 811,
      "ann": 812,
      "Ġterm": 813,
      "ĠÃĹ": 814,
      "Ġusing": 815,
      "Ġdec": 816,
      "Ïĥ": 817,
      "Ġprogram": 818,
      "ĠAl": 819,
      "Ġevery": 820,
      "ties": 821,
      "amet": 822,
      "ces": 823,
      "âĨĴ": 824,
      "ffic": 825,
      "Ġ9": 826,
      "Ġprov": 827,
      "Ġfinite": 828,
      "ĠProof": 829,
      "ight": 830,
      "ory": 831,
      "Ġproof": 832,
      "ĠAn": 833,
      "ĠâĪĨ": 834,
      "Ġorder": 835,
      "ension": 836,
      "ag": 837,
      "ld": 838,
      "ied": 839,
      "EE": 840,
      "Ġobtain": 841,
      "Ġdata": 842,
      "fore": 843,
      "put": 844,
      "ndom": 845,
      "aly": 846,
      "Ġdistribution": 847,
      "Ġund": 848,
      "Ġsame": 849,
      "Ġout": 850,
      "ective": 851,
      "Ġrec": 852,
      "Ġinde": 853,
      "Ġdet": 854,
      "resp": 855,
      "Ġrandom": 856,
      "Ġcontain": 857,
      "19": 858,
      "ization": 859,
      "ower": 860,
      "ased": 861,
      "Ġ200": 862,
      "Ġro": 863,
      "Ġcondition": 864,
      "Ġproper": 865,
      "abl": 866,
      "ove": 867,
      "ĠIt": 868,
      "ulti": 869,
      "Ġdifferen": 870,
      "een": 871,
      "Ġthan": 872,
      "now": 873,
      "ion": 874,
      "etween": 875,
      "ator": 876,
      "Ġoptim": 877,
      "ding": 878,
      "ample": 879,
      "au": 880,
      "Ġresp": 881,
      "out": 882,
      "Ġbetween": 883,
      "Ġfact": 884,
      "Ġā": 885,
      "tions": 886,
      "ient": 887,
      "Ġprobability": 888,
      "Ġinte": 889,
      "Ġsystem": 890,
      "Ġim": 891,
      "hod": 892,
      "Ġline": 893,
      "Ġ`": 894,
      "rix": 895,
      "ĠÎµ": 896,
      "group": 897,
      "Ġthese": 898,
      "oth": 899,
      "ĠBy": 900,
      "ke": 901,
      "odes": 902,
      "vel": 903,
      "ov": 904,
      "formation": 905,
      "ism": 906,
      "Ġclass": 907,
      "tical": 908,
      "Ġtype": 909,
      "ÏĦ": 910,
      "ould": 911,
      "Ġtr": 912,
      "orph": 913,
      "Ġreg": 914,
      "cre": 915,
      "ile": 916,
      "Ġ:=": 917,
      "atisf": 918,
      "âĪŀ": 919,
      "Ġconsider": 920,
      "ni": 921,
      "Ġmore": 922,
      "ĠSt": 923,
      "ĠâĪļ": 924,
      "ating": 925,
      "Ġext": 926,
      "Ġsatisf": 927,
      "Î³": 928,
      "Ġunder": 929,
      "Ç«": 930,
      "ail": 931,
      "Âµ": 932,
      "ints": 933,
      "Ġmatrix": 934,
      "ip": 935,
      "Ġsequ": 936,
      "Ġprocess": 937,
      "Î´": 938,
      "Ġsm": 939,
      "ĠSince": 940,
      "ide": 941,
      "ized": 942,
      "Ġsubs": 943,
      "respond": 944,
      "Ġparamet": 945,
      "Ġlar": 946,
      "ĠDe": 947,
      "Ġresults": 948,
      "Ġused": 949,
      "ark": 950,
      "ves": 951,
      "ĠÏĨ": 952,
      "position": 953,
      "ĠSection": 954,
      "13": 955,
      "Ġanaly": 956,
      "Ġmethod": 957,
      "Ġhol": 958,
      "Ġgeneral": 959,
      "Ġbut": 960,
      "ĠComp": 961,
      "Ġmost": 962,
      "ub": 963,
      "vers": 964,
      "Ġmulti": 965,
      "ĠThere": 966,
      "Ġcorrespond": 967,
      "15": 968,
      "Ġappl": 969,
      "ew": 970,
      "Ġdefined": 971,
      "Ġgroups": 972,
      "Ħ¦": 973,
      "Ġconstr": 974,
      "Ġcall": 975,
      "Ġ;": 976,
      "tics": 977,
      "ðĿĳ": 978,
      "16": 979,
      "Ġcomm": 980,
      "14": 981,
      "Ġint": 982,
      "ual": 983,
      "ever": 984,
      "Ġoper": 985,
      "Ġpr": 986,
      "Ġresult": 987,
      "Ġrequ": 988,
      "):": 989,
      "ists": 990,
      "Ġloc": 991,
      "Ġinto": 992,
      "osed": 993,
      "ĠĐ": 994,
      "Ġinst": 995,
      "Ġē": 996,
      "22": 997,
      "ĠĒ": 998,
      "ĠâĪ©": 999,
      "tern": 1000,
      "Ġpath": 1001,
      "Â·": 1002,
      "ech": 1003,
      "ĠÎ£": 1004,
      "Ġsince": 1005,
      "are": 1006,
      "ÏĢ": 1007,
      "Ġmay": 1008,
      "Ġwork": 1009,
      "Ġminim": 1010,
      "Ġrepresent": 1011,
      "omorph": 1012,
      "xt": 1013,
      "ures": 1014,
      "Ġ12": 1015,
      "Ġđ": 1016,
      "ĠâĪŀ": 1017,
      "imension": 1018,
      "ected": 1019,
      "Ġvalue": 1020,
      "Ġid": 1021,
      "Ġmaxim": 1022,
      "ĠâĢ¢": 1023,
      "ted": 1024,
      "Ġcol": 1025,
      "Ġspec": 1026,
      "Ġsec": 1027,
      "ilar": 1028,
      "tices": 1029,
      "Ġsubgroup": 1030,
      "Ġpl": 1031,
      "par": 1032,
      "Ġsize": 1033,
      "Ġer": 1034,
      "ĠâĪª": 1035,
      "Ġet": 1036,
      "ia": 1037,
      "Ġspace": 1038,
      "Ġvect": 1039,
      "Ġperform": 1040,
      "etwork": 1041,
      "Ġpoint": 1042,
      "ĠÎ·": 1043,
      "Ġstruct": 1044,
      "nt": 1045,
      "Ġrem": 1046,
      "ob": 1047,
      "its": 1048,
      "Ġvertex": 1049,
      "ables": 1050,
      "ĠTo": 1051,
      "Ġabove": 1052,
      "âī": 1053,
      "cy": 1054,
      "Ġexists": 1055,
      "eng": 1056,
      "Ġboth": 1057,
      "vari": 1058,
      "Ġsupp": 1059,
      "iel": 1060,
      "Ġsign": 1061,
      "17": 1062,
      "mb": 1063,
      "Ġneed": 1064,
      "ĠFigure": 1065,
      "ian": 1066,
      "Ïģ": 1067,
      "Ġsmall": 1068,
      "ases": 1069,
      "ock": 1070,
      "Ġbec": 1071,
      "Ġlinear": 1072,
      "Ġsolution": 1073,
      "201": 1074,
      "ause": 1075,
      "Ġknow": 1076,
      "ĠProposition": 1077,
      "ption": 1078,
      "ational": 1079,
      "ĠâĬĨ": 1080,
      "Îµ": 1081,
      "Ġimpl": 1082,
      "ression": 1083,
      "als": 1084,
      "Ġpartic": 1085,
      "Ġnorm": 1086,
      "Ġup": 1087,
      "Ġedge": 1088,
      "Ġdesc": 1089,
      "Ġapproxim": 1090,
      "Ġvertices": 1091,
      "Ġdifferent": 1092,
      "Îĵ": 1093,
      "fficient": 1094,
      "Ġprop": 1095,
      "ord": 1096,
      "low": 1097,
      "Ġmean": 1098,
      "ference": 1099,
      "ĠOn": 1100,
      "Ġmeas": 1101,
      "equ": 1102,
      "Ġdefinition": 1103,
      "Ġcomplex": 1104,
      "ĠThus": 1105,
      "ning": 1106,
      "Ġpos": 1107,
      "âĦĵ": 1108,
      "Ġlim": 1109,
      "Ġexample": 1110,
      "ings": 1111,
      "ten": 1112,
      "arch": 1113,
      "tial": 1114,
      "ĠNote": 1115,
      "aus": 1116,
      "Ġobser": 1117,
      "Ġman": 1118,
      "Ġpoly": 1119,
      "Ġpp": 1120,
      "ress": 1121,
      "duction": 1122,
      "ved": 1123,
      "Ġtak": 1124,
      "sible": 1125,
      "ii": 1126,
      "Ġinteg": 1127,
      "ij": 1128,
      "Ġdoes": 1129,
      "pendent": 1130,
      "over": 1131,
      "ule": 1132,
      "Ġdenote": 1133,
      "annel": 1134,
      "Ġsee": 1135,
      "Ġtheir": 1136,
      "art": 1137,
      "que": 1138,
      "Ġ))": 1139,
      "owever": 1140,
      "Ġnetwork": 1141,
      "Ġdefine": 1142,
      "con": 1143,
      "ens": 1144,
      "Ġdire": 1145,
      "olog": 1146,
      "Ġleast": 1147,
      "ject": 1148,
      "hed": 1149,
      "ĠâĦĵ": 1150,
      "ications": 1151,
      "Ġsem": 1152,
      "ival": 1153,
      "ĠÏķ": 1154,
      "20": 1155,
      "Ġbl": 1156,
      "Ġmax": 1157,
      "Ġwell": 1158,
      "Ġcode": 1159,
      "Ġpaper": 1160,
      "ice": 1161,
      "hen": 1162,
      "cur": 1163,
      "ĠSu": 1164,
      "Ġerr": 1165,
      "lements": 1166,
      "ell": 1167,
      "Ġpresent": 1168,
      "Ġparticular": 1169,
      "ced": 1170,
      "Ġnew": 1171,
      "ength": 1172,
      "Ġtree": 1173,
      "Ġassume": 1174,
      "Ġprove": 1175,
      "Ġfix": 1176,
      "ci": 1177,
      "Ġpair": 1178,
      "Ġstep": 1179,
      "geb": 1180,
      "ĠâĹıâĹı": 1181,
      "Ġ\\": 1182,
      "ood": 1183,
      "Ġedges": 1184,
      "Ġvariables": 1185,
      "Ġconstra": 1186,
      "Ġwas": 1187,
      "urn": 1188,
      "Ġcho": 1189,
      "Ġconstant": 1190,
      "Ġconn": 1191,
      "ĠDefin": 1192,
      "angu": 1193,
      "ĠSp": 1194,
      "ĠÏĪ": 1195,
      "Ġă": 1196,
      "Ġinformation": 1197,
      "Ìģ": 1198,
      "ive": 1199,
      "Ġholds": 1200,
      "ving": 1201,
      "Ġvalues": 1202,
      "Ġaut": 1203,
      "Ġran": 1204,
      "Ġelement": 1205,
      "sitive": 1206,
      "du": 1207,
      "ĠSy": 1208,
      "Ġsequence": 1209,
      "ĠComput": 1210,
      "18": 1211,
      "Ġsection": 1212,
      "Ġnode": 1213,
      "Ġlarge": 1214,
      "Ġmap": 1215,
      "Ġfunctions": 1216,
      "Ġanalysis": 1217,
      "Ġsecond": 1218,
      "omorphism": 1219,
      "Ġchannel": 1220,
      "gin": 1221,
      "mm": 1222,
      "duced": 1223,
      "oint": 1224,
      "ck": 1225,
      "urther": 1226,
      "log": 1227,
      "Ġend": 1228,
      "ĠâĪ¼": 1229,
      "ples": 1230,
      "Ġnow": 1231,
      "Ġelements": 1232,
      "ĠApp": 1233,
      "Ġď": 1234,
      "gn": 1235,
      "etric": 1236,
      "ĠCh": 1237,
      "ĠâĦ¦": 1238,
      "clu": 1239,
      "bit": 1240,
      "wise": 1241,
      "âĪĨ": 1242,
      "ĠEx": 1243,
      "Ġarg": 1244,
      "Ġtri": 1245,
      "Ġvol": 1246,
      "Ġri": 1247,
      "bin": 1248,
      "Ġimplies": 1249,
      "Ġbased": 1250,
      "asi": 1251,
      "Ġder": 1252,
      "Ġstate": 1253,
      "ĠRe": 1254,
      "pt": 1255,
      "Ġequival": 1256,
      "ness": 1257,
      "Ġwr": 1258,
      "ral": 1259,
      "Ġalgorithms": 1260,
      "Ġdi": 1261,
      "ĠâĨ": 1262,
      "Ġrun": 1263,
      "istic": 1264,
      "Ġcorresponding": 1265,
      "Ġbeen": 1266,
      "ĠÎ½": 1267,
      "Ġlength": 1268,
      "ming": 1269,
      "Ĺ¦": 1270,
      "ug": 1271,
      "ght": 1272,
      "Ġdepend": 1273,
      "ĠÎ¦": 1274,
      "Ġdeg": 1275,
      "dic": 1276,
      "200": 1277,
      "Ġ15": 1278,
      "ĠTherefore": 1279,
      ")|": 1280,
      "ets": 1281,
      "ĠHence": 1282,
      "Ġexpl": 1283,
      "ĠÇ«": 1284,
      "me": 1285,
      "uction": 1286,
      "Ġcompon": 1287,
      "ectively": 1288,
      "Ġli": 1289,
      "Ġstructure": 1290,
      "omial": 1291,
      "av": 1292,
      "Ġvector": 1293,
      "Ġoptimal": 1294,
      ",âĢĿ": 1295,
      "ency": 1296,
      "Ġag": 1297,
      "ern": 1298,
      "Ġ13": 1299,
      "EEE": 1300,
      "Ġï£´": 1301,
      "Ġinequ": 1302,
      "Ġgraphs": 1303,
      "ink": 1304,
      "Ġinput": 1305,
      "Ġsimilar": 1306,
      "Ġmain": 1307,
      "rent": 1308,
      "ĠMore": 1309,
      "Ġstud": 1310,
      "ull": 1311,
      "Ġ16": 1312,
      "Ġadd": 1313,
      "Ġ11": 1314,
      "Ġintro": 1315,
      "Ġent": 1316,
      "ft": 1317,
      "ĠIEEE": 1318,
      "Ġnodes": 1319,
      "Ġtheorem": 1320,
      "rough": 1321,
      "23": 1322,
      "Ġsing": 1323,
      "Ġconver": 1324,
      "Ġthey": 1325,
      "fer": 1326,
      "oci": 1327,
      "ĠÎ¾": 1328,
      "ry": 1329,
      "Ġsimple": 1330,
      "Ġexist": 1331,
      "Ġidenti": 1332,
      "Ġtest": 1333,
      "ific": 1334,
      "Ġapproach": 1335,
      "ero": 1336,
      "Ġdisc": 1337,
      "yn": 1338,
      "Ġdenot": 1339,
      "Ġindependent": 1340,
      "ĠÏī": 1341,
      "hes": 1342,
      "Ġchar": 1343,
      "ĠâĪĤ": 1344,
      "25": 1345,
      "ON": 1346,
      "Ġdescrib": 1347,
      "ER": 1348,
      "ĠAlgorithm": 1349,
      "ĠHowever": 1350,
      "Ġmeasure": 1351,
      "Ġproduc": 1352,
      "Ġmust": 1353,
      "Ġbecause": 1354,
      "gebra": 1355,
      "Ġerror": 1356,
      "ement": 1357,
      "sive": 1358,
      "Ġpoints": 1359,
      "Ġuni": 1360,
      "Ġret": 1361,
      "Ġ20": 1362,
      "Ġlat": 1363,
      "....": 1364,
      "Ġlo": 1365,
      "Ġsets": 1366,
      "acter": 1367,
      "Ġimplement": 1368,
      "Ġ14": 1369,
      "Ġincre": 1370,
      "Ġlangu": 1371,
      "ful": 1372,
      "lect": 1373,
      "Ġblock": 1374,
      "âī¤": 1375,
      "Î·": 1376,
      "Ġpossible": 1377,
      "ĠÎº": 1378,
      "vious": 1379,
      "21": 1380,
      "inu": 1381,
      "ermin": 1382,
      "Ġterms": 1383,
      "one": 1384,
      "ceed": 1385,
      "Ġfe": 1386,
      "ha": 1387,
      "Ġwhile": 1388,
      "Ġcontains": 1389,
      "Ġparameter": 1390,
      "24": 1391,
      "Ġdom": 1392,
      "ĠDefinition": 1393,
      "Ġam": 1394,
      "Ġvariable": 1395,
      "abel": 1396,
      "round": 1397,
      "Ġhigh": 1398,
      "ĠSupp": 1399,
      "side": 1400,
      "Ġrate": 1401,
      "Ġlower": 1402,
      "Ġbounded": 1403,
      "Ġrespectively": 1404,
      "Ġpower": 1405,
      "ulation": 1406,
      "ither": 1407,
      "Ġallow": 1408,
      "TI": 1409,
      "Ġcons": 1410,
      "ays": 1411,
      "lection": 1412,
      "see": 1413,
      "ĠCor": 1414,
      "ĠMat": 1415,
      "nomial": 1416,
      "get": 1417,
      "ential": 1418,
      "ough": 1419,
      "âĬ": 1420,
      "Ġget": 1421,
      "ear": 1422,
      "Ġunif": 1423,
      "Ġreal": 1424,
      "Ġdirect": 1425,
      "ame": 1426,
      "Ġnormal": 1427,
      "Ġaction": 1428,
      "ying": 1429,
      "ish": 1430,
      "Ġthus": 1431,
      "ators": 1432,
      "heck": 1433,
      "Ġ199": 1434,
      "line": 1435,
      "ural": 1436,
      "Ġcorre": 1437,
      "ired": 1438,
      "sing": 1439,
      "action": 1440,
      "cor": 1441,
      "Ġcharacter": 1442,
      "Ġobtained": 1443,
      "ĠPr": 1444,
      "ĠNow": 1445,
      ")(": 1446,
      "ects": 1447,
      "Ġproperty": 1448,
      "Ġâĩ": 1449,
      "Ġwould": 1450,
      "ities": 1451,
      "Ġstand": 1452,
      "Ġfixed": 1453,
      "Ġtra": 1454,
      "Ġass": 1455,
      "Ïī": 1456,
      "ollary": 1457,
      "ey": 1458,
      "not": 1459,
      "Ġtech": 1460,
      "ier": 1461,
      "ĠÎĽ": 1462,
      "Ġdimension": 1463,
      "anti": 1464,
      "Ġhand": 1465,
      "Ġcou": 1466,
      "ÏĨ": 1467,
      "tice": 1468,
      "fter": 1469,
      "Î½": 1470,
      "Ġcur": 1471,
      "read": 1472,
      "ax": 1473,
      "Ġser": 1474,
      "val": 1475,
      "ĠâĬĹ": 1476,
      "ules": 1477,
      "}.": 1478,
      "aces": 1479,
      "sian": 1480,
      "Ġapply": 1481,
      "Ġtop": 1482,
      "ĠâĹ¦": 1483,
      "Ġhy": 1484,
      "pper": 1485,
      "ĠFin": 1486,
      "},": 1487,
      "ĠâĪĢ": 1488,
      "ND": 1489,
      "olic": 1490,
      "Ġpositive": 1491,
      "Ġmany": 1492,
      "gy": 1493,
      "mit": 1494,
      "Ġconstruct": 1495,
      "Ġ!": 1496,
      "Ġpolynomial": 1497,
      "Ġsingle": 1498,
      "chie": 1499,
      "Ġproperties": 1500,
      "Ġsup": 1501,
      "ĠCom": 1502,
      "CM": 1503,
      "ments": 1504,
      "Ġprovid": 1505,
      "Ġshown": 1506,
      "Ġgenerated": 1507,
      "Ġdistance": 1508,
      "Ġeven": 1509,
      "ages": 1510,
      "ĠÎĺ": 1511,
      "ĠSuppose": 1512,
      "ĠAssum": 1513,
      "tal": 1514,
      "Ġinequality": 1515,
      "xi": 1516,
      "duce": 1517,
      "Ġcost": 1518,
      ")-": 1519,
      "Ġbin": 1520,
      "Ġcy": 1521,
      "âĹıâĹı": 1522,
      "Ġcalled": 1523,
      "Ġph": 1524,
      "Î¾": 1525,
      "Ġexact": 1526,
      "finite": 1527,
      "Ġwor": 1528,
      "Ġinstance": 1529,
      "ĠâĬĤ": 1530,
      "Ġperformance": 1531,
      "Ġpri": 1532,
      "Ġparti": 1533,
      "Ġachie": 1534,
      "Ġiter": 1535,
      "ĠHe": 1536,
      "ok": 1537,
      "min": 1538,
      "Ġlevel": 1539,
      "Ġlem": 1540,
      "hema": 1541,
      "Ġaddition": 1542,
      "Ġcases": 1543,
      "Ġbas": 1544,
      "ology": 1545,
      "26": 1546,
      "the": 1547,
      "ature": 1548,
      "Ġthrough": 1549,
      "Ġpages": 1550,
      "sp": 1551,
      "Ġmon": 1552,
      "Ġrank": 1553,
      "Ġmodels": 1554,
      "tiv": 1555,
      "ĠâĬ¢": 1556,
      "oding": 1557,
      "old": 1558,
      "Ġeither": 1559,
      "Ġindex": 1560,
      "Ġshows": 1561,
      "Ġcomplexity": 1562,
      "Ġdesign": 1563,
      "ĠOur": 1564,
      "Ġargum": 1565,
      "Î£": 1566,
      "Ġcontinu": 1567,
      "Ġproblems": 1568,
      "ĠâĪ§": 1569,
      "ching": 1570,
      "uted": 1571,
      "Ġstandard": 1572,
      "aussian": 1573,
      "Ġbounds": 1574,
      "aim": 1575,
      "ring": 1576,
      "Ġexec": 1577,
      "Ġsum": 1578,
      "Ġquer": 1579,
      "ymp": 1580,
      "Ġ100": 1581,
      "Ġuniform": 1582,
      "Ġgu": 1583,
      "Ġpart": 1584,
      "Ġright": 1585,
      "Ġori": 1586,
      "stric": 1587,
      "Ġsupport": 1588,
      "sequ": 1589,
      "ympto": 1590,
      "Ġderiv": 1591,
      "Ġcap": 1592,
      "Ġrespect": 1593,
      "nce": 1594,
      "sign": 1595,
      "Ġmem": 1596,
      "Ġtre": 1597,
      "verage": 1598,
      "Ġcent": 1599,
      "ĠË": 1600,
      "Ġeff": 1601,
      "Ġsche": 1602,
      "Ġconf": 1603,
      "row": 1604,
      "clud": 1605,
      "Ġassoci": 1606,
      "Ġ17": 1607,
      "30": 1608,
      "ĠâĢĵ": 1609,
      "valu": 1610,
      "Ġcommun": 1611,
      "Ġthree": 1612,
      "ĠMoreover": 1613,
      "Ġremain": 1614,
      "28": 1615,
      "vex": 1616,
      "ĠâĨĲ": 1617,
      "nal": 1618,
      "Ġcheck": 1619,
      "Ġhence": 1620,
      "ex": 1621,
      "Ġleft": 1622,
      "Ġknown": 1623,
      "Ġexpression": 1624,
      "27": 1625,
      "Ġcombin": 1626,
      "rary": 1627,
      "alc": 1628,
      "Ġreturn": 1629,
      "rest": 1630,
      ")/": 1631,
      "less": 1632,
      "Ġequivalent": 1633,
      "Ġdiscus": 1634,
      "Ġfind": 1635,
      "ven": 1636,
      "Ġsetting": 1637,
      "mod": 1638,
      "ĠCorollary": 1639,
      "Ġtrue": 1640,
      "Ġway": 1641,
      "Ġproposed": 1642,
      "Ġpred": 1643,
      "SI": 1644,
      "Ġdetermin": 1645,
      "ĠTrans": 1646,
      "ute": 1647,
      "crete": 1648,
      "Ġhow": 1649,
      "up": 1650,
      "Ġequal": 1651,
      "ĠÎł": 1652,
      "max": 1653,
      "Ġproced": 1654,
      "Ġconnected": 1655,
      "Ġlocal": 1656,
      "Ġprec": 1657,
      "Ġconditions": 1658,
      "ymptotic": 1659,
      "Ġmaximum": 1660,
      "Ġ18": 1661,
      "ÃĹ": 1662,
      "rop": 1663,
      "Ġupper": 1664,
      "Ġgo": 1665,
      "Ġextend": 1666,
      "Ġhyper": 1667,
      "ĠSim": 1668,
      "Ġsatisfies": 1669,
      "Ġclust": 1670,
      "Ġapproximation": 1671,
      "ĠSci": 1672,
      "Ġtotal": 1673,
      "ne": 1674,
      "Ġtheory": 1675,
      "ĠCl": 1676,
      "Ġdegree": 1677,
      "lear": 1678,
      "Ġparameters": 1679,
      "Ġrestric": 1680,
      "Ġthem": 1681,
      "Ġsample": 1682,
      "ST": 1683,
      "Ġsubset": 1684,
      "Ġtypes": 1685,
      "ually": 1686,
      "Ġevalu": 1687,
      "ger": 1688,
      "ource": 1689,
      "29": 1690,
      "Ġprevious": 1691,
      "Ġ#": 1692,
      "Ġoutput": 1693,
      "Ġsystems": 1694,
      "Ġlimit": 1695,
      "Ġsl": 1696,
      "Ġxi": 1697,
      "ĠUni": 1698,
      "Ġfree": 1699,
      "ib": 1700,
      "Ġnat": 1701,
      ");": 1702,
      "Ġrule": 1703,
      "Ġ&": 1704,
      "ynam": 1705,
      "Ġrece": 1706,
      "Ġoc": 1707,
      "Ġfactor": 1708,
      "for": 1709,
      "ĠðĿĳ": 1710,
      "Ġge": 1711,
      "Ġ..": 1712,
      "comp": 1713,
      "iven": 1714,
      "Ġrepl": 1715,
      "Ġweight": 1716,
      "AN": 1717,
      "ys": 1718,
      "iter": 1719,
      "Ġlabel": 1720,
      "ision": 1721,
      "Ġlanguage": 1722,
      "Ġarbit": 1723,
      "Ġlemma": 1724,
      "sity": 1725,
      "pro": 1726,
      "Ġbu": 1727,
      "ences": 1728,
      "¬ģ": 1729,
      "Ġstatis": 1730,
      "Ġinv": 1731,
      "ĠRec": 1732,
      "Ġsimpl": 1733,
      "Ġestimation": 1734,
      "ĠÄ": 1735,
      "clude": 1736,
      "ron": 1737,
      "gence": 1738,
      "Ġav": 1739,
      "AR": 1740,
      "Ġ25": 1741,
      "Ġwithout": 1742,
      "stract": 1743,
      "ĠÏĩ": 1744,
      "Ġini": 1745,
      "ically": 1746,
      "Ġroot": 1747,
      "oss": 1748,
      "rices": 1749,
      "Ġmethods": 1750,
      "ield": 1751,
      "ances": 1752,
      "Ġinterest": 1753,
      "tr": 1754,
      "ĠConsider": 1755,
      "05": 1756,
      "Ġformul": 1757,
      "Ġconsist": 1758,
      "ÏĪ": 1759,
      "ighb": 1760,
      "onal": 1761,
      "IN": 1762,
      "vial": 1763,
      "ss": 1764,
      "AL": 1765,
      "OR": 1766,
      "ately": 1767,
      "Ġpredic": 1768,
      "ared": 1769,
      "Ġdecomp": 1770,
      "Ġabout": 1771,
      "Ġwhose": 1772,
      "tit": 1773,
      "Ġalgebra": 1774,
      "oid": 1775,
      "li": 1776,
      "ner": 1777,
      "jective": 1778,
      "ĠUnivers": 1779,
      "Ġzero": 1780,
      "Ġproduct": 1781,
      "ants": 1782,
      "Ġnote": 1783,
      "ĠGaussian": 1784,
      "Ġnext": 1785,
      "ĠGiven": 1786,
      "Ġtechni": 1787,
      "imensional": 1788,
      "33": 1789,
      "atic": 1790,
      "Ġemp": 1791,
      "ï£": 1792,
      "Ġimpro": 1793,
      "rid": 1794,
      "Ġassign": 1795,
      "Ġestimator": 1796,
      "verse": 1797,
      "SE": 1798,
      "Ġcomplete": 1799,
      "Ġcontex": 1800,
      "ÌĪ": 1801,
      "ields": 1802,
      "ind": 1803,
      "ks": 1804,
      "Ġsur": 1805,
      "ult": 1806,
      "Ġgives": 1807,
      "Ġafter": 1808,
      "Ġlast": 1809,
      "ange": 1810,
      "sh": 1811,
      "Ġunique": 1812,
      "Ġvia": 1813,
      "time": 1814,
      "Ġbi": 1815,
      "Ġstrong": 1816,
      "ĠFurther": 1817,
      "ĠACM": 1818,
      "Ġpres": 1819,
      "ĠLe": 1820,
      "Ġversion": 1821,
      "Ġstat": 1822,
      "di": 1823,
      "acy": 1824,
      "ĠFinally": 1825,
      "Ġlist": 1826,
      "ward": 1827,
      "ified": 1828,
      "Ġmeans": 1829,
      "Ġsymb": 1830,
      "Ġsepar": 1831,
      "AM": 1832,
      "Ġassumption": 1833,
      "Ġobserv": 1834,
      "ĠTheory": 1835,
      "Ġfram": 1836,
      "tt": 1837,
      "lo": 1838,
      "Ïķ": 1839,
      "Ġidentif": 1840,
      "ĠâĪħ": 1841,
      "Ġ21": 1842,
      "ĠNe": 1843,
      "alcul": 1844,
      "Ġquanti": 1845,
      "Ġuser": 1846,
      "cording": 1847,
      "pr": 1848,
      "AT": 1849,
      "Ġtran": 1850,
      "Ġhyp": 1851,
      "mis": 1852,
      "Ġfam": 1853,
      "man": 1854,
      "dimensional": 1855,
      "ecess": 1856,
      "34": 1857,
      "Ġhom": 1858,
      "Ġide": 1859,
      "Ġwrite": 1860,
      "Ġel": 1861,
      "35": 1862,
      "Ġvery": 1863,
      "velop": 1864,
      "ĠInd": 1865,
      ")]": 1866,
      "Xiv": 1867,
      "Ġsay": 1868,
      "Îº": 1869,
      "hood": 1870,
      "icit": 1871,
      "alle": 1872,
      "âĦ¦": 1873,
      "graph": 1874,
      "ĠRem": 1875,
      "Ġasymptotic": 1876,
      "Ġrepresentation": 1877,
      "Ġmatrices": 1878,
      "Ġcompute": 1879,
      "Ġact": 1880,
      "asing": 1881,
      "Ġconstruction": 1882,
      "ginal": 1883,
      "les": 1884,
      "imes": 1885,
      "Ġinteger": 1886,
      "ene": 1887,
      "ĠWhen": 1888,
      "pre": 1889,
      "Ġcomputation": 1890,
      "Ġcannot": 1891,
      "med": 1892,
      "Ġupd": 1893,
      "aran": 1894,
      "ently": 1895,
      "Ġoccur": 1896,
      "Ġcontro": 1897,
      "eed": 1898,
      "pping": 1899,
      "emp": 1900,
      "other": 1901,
      "Ġseman": 1902,
      "variant": 1903,
      "ĠAd": 1904,
      "ole": 1905,
      "Ġâī¡": 1906,
      "pling": 1907,
      "Ġcompact": 1908,
      "Ġindic": 1909,
      "Ġscal": 1910,
      "LE": 1911,
      "Ġsymm": 1912,
      "Ġprogramming": 1913,
      "Ġneighb": 1914,
      "Ġconc": 1915,
      "Ġinf": 1916,
      "Ġ2016": 1917,
      "Ġprocedure": 1918,
      "ave": 1919,
      "ĠÂ´": 1920,
      "based": 1921,
      "Ġsufficient": 1922,
      "ĠSe": 1923,
      "ification": 1924,
      "ournal": 1925,
      "ĠFirst": 1926,
      "Ġconvex": 1927,
      "Ġperm": 1928,
      "ĠMathema": 1929,
      "Ã©": 1930,
      "ĠSo": 1931,
      "son": 1932,
      "Ġconstraints": 1933,
      "Ġclosed": 1934,
      "ason": 1935,
      "ĠUn": 1936,
      "Ġest": 1937,
      "ĠInt": 1938,
      "Ġpartition": 1939,
      "ering": 1940,
      "Ġrules": 1941,
      "cept": 1942,
      "ĠÎ¨": 1943,
      "36": 1944,
      "ols": 1945,
      "Ġdue": 1946,
      "hesis": 1947,
      "Ġenc": 1948,
      "Ġinitial": 1949,
      "Ġconstraint": 1950,
      "Ġassociated": 1951,
      "Ġcomponent": 1952,
      "ik": 1953,
      "ĠMath": 1954,
      "ceedings": 1955,
      "IC": 1956,
      "ines": 1957,
      "ynamic": 1958,
      "ĠUniversity": 1959,
      "Ġfurther": 1960,
      "ĠII": 1961,
      "Ġcontinuous": 1962,
      "Ġimport": 1963,
      "led": 1964,
      "Ġinfinite": 1965,
      "Ġpi": 1966,
      "attern": 1967,
      "32": 1968,
      "Ġshould": 1969,
      "Ġminimum": 1970,
      "04": 1971,
      "Ġtermin": 1972,
      "ĠJournal": 1973,
      "Ġgive": 1974,
      "Ġ24": 1975,
      "Ġsignal": 1976,
      "Ġprovide": 1977,
      "Ġvi": 1978,
      "ĠProceedings": 1979,
      "ernel": 1980,
      "cle": 1981,
      "ertain": 1982,
      "perim": 1983,
      "uch": 1984,
      "Ġthose": 1985,
      "allel": 1986,
      "Ġ)|": 1987,
      "Ġ2017": 1988,
      "Ġln": 1989,
      "Ġcontext": 1990,
      "ĠAND": 1991,
      "Ġprograms": 1992,
      "ily": 1993,
      "Ġima": 1994,
      "sidered": 1995,
      "Ġnetworks": 1996,
      "umn": 1997,
      "Ġbeing": 1998,
      "Ġhypot": 1999,
      "ype": 2000,
      "ters": 2001,
      "Ġapplications": 2002,
      "Ġval": 2003,
      "itive": 2004,
      "Ġexpon": 2005,
      "Ġarbitrary": 2006,
      "olution": 2007,
      "Ġ||": 2008,
      "37": 2009,
      "Ġbel": 2010,
      "Ġhere": 2011,
      "Ġmetric": 2012,
      "ible": 2013,
      "Ġrequire": 2014,
      "Ġlike": 2015,
      "arante": 2016,
      "ĠProgram": 2017,
      "Ġbelow": 2018,
      "Ġmess": 2019,
      "Ġconsidered": 2020,
      "Ġscheme": 2021,
      "Ġbo": 2022,
      "])": 2023,
      "Ġlear": 2024,
      "und": 2025,
      "Ġextension": 2026,
      "Ġchoice": 2027,
      "ques": 2028,
      "99": 2029,
      "Ġtherefore": 2030,
      "ĠFrom": 2031,
      "Ġwere": 2032,
      "Ġrelation": 2033,
      "Ġregular": 2034,
      "RO": 2035,
      "ĠÐ": 2036,
      "mbed": 2037,
      "ĠTable": 2038,
      "¿½": 2039,
      "Ġloss": 2040,
      "Ġstudy": 2041,
      "ĠSte": 2042,
      "ĠÎ¶": 2043,
      "Ġdetail": 2044,
      "02": 2045,
      "ility": 2046,
      "Ġmemory": 2047,
      "more": 2048,
      "Ġnecess": 2049,
      "EN": 2050,
      "most": 2051,
      "til": 2052,
      "Ġmultiple": 2053,
      "Ġsubgroups": 2054,
      "ĠAr": 2055,
      "ild": 2056,
      "ĠRemark": 2057,
      "Ġlead": 2058,
      "ĠUsing": 2059,
      "izes": 2060,
      "ead": 2061,
      "Ġnatural": 2062,
      "ify": 2063,
      "Ġdevelop": 2064,
      "]).": 2065,
      "Ġguarante": 2066,
      "ffici": 2067,
      "Ġspar": 2068,
      "Ġclaim": 2069,
      "Ġcorrect": 2070,
      "ĠNo": 2071,
      "Ġdensity": 2072,
      "Ġcell": 2073,
      "Ġdomain": 2074,
      "aw": 2075,
      "ĠSh": 2076,
      "Ġdistributions": 2077,
      "ĠRes": 2078,
      "Ġcomponents": 2079,
      "ĠOb": 2080,
      "Ġbeha": 2081,
      "ĠâĪĴâĨĴ": 2082,
      "amples": 2083,
      "Ġsearch": 2084,
      "Ġcontr": 2085,
      "lying": 2086,
      "Ġinclud": 2087,
      "ometric": 2088,
      "sk": 2089,
      "38": 2090,
      "45": 2091,
      "06": 2092,
      "ĠHere": 2093,
      "ĠarXiv": 2094,
      "uring": 2095,
      "ick": 2096,
      "Ġâĭ": 2097,
      "Ġargument": 2098,
      "ĠAut": 2099,
      "ane": 2100,
      "plit": 2101,
      "Ġmaximal": 2102,
      "Ġefficient": 2103,
      "Ġcodes": 2104,
      "ĠProb": 2105,
      "Ġdecomposition": 2106,
      "Ġstrate": 2107,
      "Ġreason": 2108,
      "Ġcolumn": 2109,
      "Ġdescribed": 2110,
      "Ġapplication": 2111,
      "Ġspecial": 2112,
      "Ġ2015": 2113,
      "Ġunit": 2114,
      "ĠAb": 2115,
      "Ġ)(": 2116,
      "PS": 2117,
      "ttp": 2118,
      "Ġconj": 2119,
      "Ġlow": 2120,
      "Ġtransform": 2121,
      "sif": 2122,
      "Ġdenotes": 2123,
      "31": 2124,
      "CS": 2125,
      "000": 2126,
      "Ġmake": 2127,
      "Ġ\"": 2128,
      "ĠComm": 2129,
      "Ġoptimization": 2130,
      "jection": 2131,
      "Ġrecur": 2132,
      "ES": 2133,
      "Ġcould": 2134,
      "//": 2135,
      "Ġtake": 2136,
      "aris": 2137,
      "Ġwhether": 2138,
      "Ġembed": 2139,
      "Ġaverage": 2140,
      "Ġopen": 2141,
      "ways": 2142,
      "Ġtimes": 2143,
      "Ġexactly": 2144,
      "ĠEn": 2145,
      "Ġkernel": 2146,
      "igen": 2147,
      "ringer": 2148,
      "Ġrow": 2149,
      "OM": 2150,
      "eli": 2151,
      "08": 2152,
      "Ġestimate": 2153,
      "fic": 2154,
      "ĠâĢĻ": 2155,
      "ework": 2156,
      "Ġmach": 2157,
      "ĠOp": 2158,
      "izing": 2159,
      "Ġcontra": 2160,
      "inc": 2161,
      "Ġwithin": 2162,
      "Ġkey": 2163,
      "Ġvectors": 2164,
      "ĠThese": 2165,
      "ĠĂ": 2166,
      "ai": 2167,
      "ÎĽ": 2168,
      "Ġagain": 2169,
      "Ġcr": 2170,
      "Ġbefore": 2171,
      "ĠSpringer": 2172,
      "Ġpaths": 2173,
      "TION": 2174,
      "ĠXi": 2175,
      "ries": 2176,
      "gative": 2177,
      "ĠComputer": 2178,
      "Ġstar": 2179,
      "Ġrelative": 2180,
      "Ġsuc": 2181,
      ")).": 2182,
      "Ġalways": 2183,
      "app": 2184,
      "Ġclasses": 2185,
      "Ġitem": 2186,
      "Xi": 2187,
      "://": 2188,
      "Ġshort": 2189,
      "IT": 2190,
      "Ġsemantics": 2191,
      "Ġ30": 2192,
      "Ġcalcul": 2193,
      "Ġappear": 2194,
      "iew": 2195,
      "idth": 2196,
      "ĠïĢ": 2197,
      "Ġstates": 2198,
      "Ġdiscuss": 2199,
      "ĠAnn": 2200,
      "Ġmatching": 2201,
      "Ġhold": 2202,
      "SA": 2203,
      "Ġfound": 2204,
      "ĠâĩĴ": 2205,
      "39": 2206,
      "Ġ2014": 2207,
      "Î¦": 2208,
      "here": 2209,
      "Ġposition": 2210,
      "Ġotherwise": 2211,
      "ĠLi": 2212,
      "IM": 2213,
      "Ġnotation": 2214,
      "ĠAssume": 2215,
      "ĠScience": 2216,
      ")âĪĴ": 2217,
      "resh": 2218,
      "Ġhttp": 2219,
      "Ġcontradic": 2220,
      "Ġloop": 2221,
      "Ġ~": 2222,
      "ptions": 2223,
      "Ġrequired": 2224,
      "Ġ22": 2225,
      "Ġcycl": 2226,
      "ĠWith": 2227,
      "Ġexecution": 2228,
      "ĠâĬķ": 2229,
      "medi": 2230,
      "Ġcommon": 2231,
      "Ġcurrent": 2232,
      "ount": 2233,
      "requ": 2234,
      "Ġcontrol": 2235,
      "Ġnoise": 2236,
      "Ġgre": 2237,
      "Ġside": 2238,
      "Ġdat": 2239,
      "till": 2240,
      "........": 2241,
      "ĉĊ": 2242,
      "Ġeigen": 2243,
      "Ġ?": 2244,
      "Ġspect": 2245,
      "mer": 2246,
      "Ġprior": 2247,
      "Ġhig": 2248,
      "07": 2249,
      "Ġpattern": 2250,
      "ray": 2251,
      "actions": 2252,
      "Ġprac": 2253,
      "com": 2254,
      "Ġweak": 2255,
      "Ġlink": 2256,
      "etry": 2257,
      "Ġdistributed": 2258,
      "own": 2259,
      "ĠExample": 2260,
      "Ġpresented": 2261,
      "PT": 2262,
      "Ġimportant": 2263,
      "know": 2264,
      "ĠIntern": 2265,
      "ĠStatis": 2266,
      "Ġread": 2267,
      "Ġbinary": 2268,
      "sc": 2269,
      "ailable": 2270,
      "ĠCo": 2271,
      "antum": 2272,
      "Ġdem": 2273,
      "lation": 2274,
      "Ġ((": 2275,
      "Ġselect": 2276,
      "Ġcovari": 2277,
      "Ġframework": 2278,
      "joint": 2279,
      "ense": 2280,
      "Ġdiv": 2281,
      "ï¿½": 2282,
      "Ġbehavi": 2283,
      "roxim": 2284,
      "09": 2285,
      "Ġconvergence": 2286,
      "Ġclear": 2287,
      "ires": 2288,
      "AC": 2289,
      "199": 2290,
      "Ġtransmit": 2291,
      "Ġsever": 2292,
      "ĠPh": 2293,
      "Ġfil": 2294,
      "ross": 2295,
      "Ġlong": 2296,
      "Ġpack": 2297,
      "Ġback": 2298,
      "Ġoperations": 2299,
      "Ġreduction": 2300,
      "Ġestabl": 2301,
      "Ġimplementation": 2302,
      "onstr": 2303,
      "Ġseveral": 2304,
      "Ġdenoted": 2305,
      "clusion": 2306,
      "endix": 2307,
      "Ġdynamic": 2308,
      "ĠSimilar": 2309,
      "ĠAc": 2310,
      "osen": 2311,
      "ĠFurthermore": 2312,
      "af": 2313,
      "Ġexperim": 2314,
      "Ġgl": 2315,
      "Ġname": 2316,
      "AS": 2317,
      "astic": 2318,
      "Ġaccording": 2319,
      "Ġuses": 2320,
      "Ġinterval": 2321,
      "Ġaccess": 2322,
      "ĠSch": 2323,
      "Ġview": 2324,
      "po": 2325,
      "Ġsource": 2326,
      "Ðµ": 2327,
      "Ġfamily": 2328,
      "ĠMod": 2329,
      "Ġcoun": 2330,
      "Ð¾": 2331,
      "Ġstore": 2332,
      "ĠSub": 2333,
      "Ġwords": 2334,
      "Ġsymmetric": 2335,
      "Ġmak": 2336,
      "ustr": 2337,
      "ze": 2338,
      "Ġatt": 2339,
      "Ġsynt": 2340,
      "Ġwrit": 2341,
      "Ġcommunication": 2342,
      "Ġcoe": 2343,
      "ĠâĮ": 2344,
      "oy": 2345,
      "Ġquery": 2346,
      "Ġcover": 2347,
      "Ġregion": 2348,
      "order": 2349,
      "Ġfull": 2350,
      "Ġ23": 2351,
      "Ġ27": 2352,
      "ior": 2353,
      "Ġmultipl": 2354,
      "Ġallows": 2355,
      "Ġ26": 2356,
      "--": 2357,
      "Ġcapac": 2358,
      "Ġinduction": 2359,
      "Ġtrees": 2360,
      "Ġoriginal": 2361,
      "Ġrefer": 2362,
      "Ġchange": 2363,
      "Ġfield": 2364,
      "Ġless": 2365,
      "ental": 2366,
      "ĠRecall": 2367,
      "Ġind": 2368,
      "stra": 2369,
      "Ġrelations": 2370,
      "ru": 2371,
      "ics": 2372,
      "vant": 2373,
      "Ġstill": 2374,
      "sib": 2375,
      "oring": 2376,
      "Ġparallel": 2377,
      "Ġapplied": 2378,
      "Ġpairs": 2379,
      "Ġtransition": 2380,
      "âĮ": 2381,
      "Ġsqu": 2382,
      "Ġpartial": 2383,
      "40": 2384,
      "known": 2385,
      "Ġ(âĪĴ": 2386,
      "ware": 2387,
      "Ġyields": 2388,
      "ĠPar": 2389,
      "sw": 2390,
      "Ġobject": 2391,
      "tivity": 2392,
      "Ġvalid": 2393,
      "Ġflow": 2394,
      "Ġpermut": 2395,
      "âĢ²âĢ²": 2396,
      "Ġevent": 2397,
      "Ġï£¬": 2398,
      "imin": 2399,
      "/(": 2400,
      "Ġ28": 2401,
      "Ġhypothesis": 2402,
      "jects": 2403,
      "asy": 2404,
      "Ġoperation": 2405,
      "entially": 2406,
      "ply": 2407,
      "Ġrelated": 2408,
      "Ġoperator": 2409,
      "Ġaltern": 2410,
      "Ġchain": 2411,
      "Ġexpected": 2412,
      "Ġsatisfying": 2413,
      "Ġinters": 2414,
      "ety": 2415,
      "Ġpost": 2416,
      "Ġill": 2417,
      "mission": 2418,
      "Ġref": 2419,
      "Ġprecise": 2420,
      "Ġinterpre": 2421,
      "Ġjust": 2422,
      "rad": 2423,
      "ĠOne": 2424,
      "Ġrequires": 2425,
      "ton": 2426,
      "ĠWh": 2427,
      "omorphic": 2428,
      "ï¬ģ": 2429,
      "Ġbelong": 2430,
      "Ġeasi": 2431,
      "inct": 2432,
      "assif": 2433,
      "Ġir": 2434,
      "Ġminimal": 2435,
      "Ġcre": 2436,
      "arily": 2437,
      "sel": 2438,
      "ĠRn": 2439,
      "Ġcertain": 2440,
      "air": 2441,
      "tri": 2442,
      "ĠAppl": 2443,
      "Ġgood": 2444,
      "Ġrati": 2445,
      "ordin": 2446,
      "Ġround": 2447,
      "ĠðĿ": 2448,
      "ĠCommun": 2449,
      "75": 2450,
      "Ġphase": 2451,
      "Ġ198": 2452,
      "In": 2453,
      "âī¥": 2454,
      "Ġ...": 2455,
      "Ġï£·": 2456,
      "Ġconjug": 2457,
      "The": 2458,
      "Ġstatement": 2459,
      "ĠSI": 2460,
      "Ġsatisfy": 2461,
      "ĠInternational": 2462,
      "Ġabstract": 2463,
      "Ġequation": 2464,
      "Ġprot": 2465,
      "reg": 2466,
      "Ġ::": 2467,
      "cs": 2468,
      "Ġvariance": 2469,
      "Ġenough": 2470,
      "Ġconclude": 2471,
      "Ġadj": 2472,
      "Ġproved": 2473,
      "Ġformula": 2474,
      "Ġautom": 2475,
      "Ġbest": 2476,
      "Ġanother": 2477,
      "Ġbet": 2478,
      "Ġexamples": 2479,
      "Ġ...,": 2480,
      ")}": 2481,
      "point": 2482,
      "Ġai": 2483,
      "Ġsamples": 2484,
      "hn": 2485,
      "Â´": 2486,
      "ides": 2487,
      "Ġfinitely": 2488,
      "Ġsteps": 2489,
      "Ġreduc": 2490,
      "âĪĴâĪĴ": 2491,
      "48": 2492,
      "Ġexplicit": 2493,
      "Ġlarger": 2494,
      "Ġfail": 2495,
      "energy": 2496,
      "osi": 2497,
      "ĠQu": 2498,
      "Ġ2013": 2499,
      "tig": 2500,
      "Ġdiag": 2501,
      "by": 2502,
      "ices": 2503,
      "ĠOF": 2504,
      "och": 2505,
      "Ġeasy": 2506,
      "Ġprocesses": 2507,
      "ocus": 2508,
      "ĠSet": 2509,
      "Ġrunning": 2510,
      "ĠSymp": 2511,
      "Ġintroduced": 2512,
      "Ġdiscrete": 2513,
      "icity": 2514,
      "Ġchoose": 2515,
      "Ġusers": 2516,
      "46": 2517,
      "we": 2518,
      "Ġmuch": 2519,
      "Ġspecific": 2520,
      "Ġens": 2521,
      "edu": 2522,
      "Â·Â·": 2523,
      "Ġclose": 2524,
      "ĠPo": 2525,
      "Ġlearning": 2526,
      "Ġcir": 2527,
      "Ġcontained": 2528,
      "Ġ},": 2529,
      "arison": 2530,
      "78": 2531,
      "Ġinvol": 2532,
      "ream": 2533,
      "off": 2534,
      "wh": 2535,
      "Ġsignific": 2536,
      "alog": 2537,
      "ondition": 2538,
      "Ġprobabil": 2539,
      "Ġcut": 2540,
      "Ġcomputing": 2541,
      "Ġbasis": 2542,
      "bolic": 2543,
      "Ġmix": 2544,
      "âĨĴâĪŀ": 2545,
      "Ġcomputed": 2546,
      "Ġchosen": 2547,
      "Ġprovides": 2548,
      "ĠSystem": 2549,
      "50": 2550,
      ".)": 2551,
      "Ġ([": 2552,
      "gest": 2553,
      "Ġenergy": 2554,
      "ĠAt": 2555,
      "ĠConference": 2556,
      "ler": 2557,
      "Ġcop": 2558,
      "Ġintroduce": 2559,
      "Ġtas": 2560,
      "ferences": 2561,
      "ĠTr": 2562,
      "Ġdirection": 2563,
      "Ġalloc": 2564,
      "Ġhigher": 2565,
      "Ġprim": 2566,
      "Ġcapacity": 2567,
      "Ġadap": 2568,
      "Ġadditional": 2569,
      "Ġdecre": 2570,
      "lex": 2571,
      "ĠMark": 2572,
      "Ġreplac": 2573,
      "Ġfocus": 2574,
      "âĩ": 2575,
      "obal": 2576,
      "amb": 2577,
      "Ġques": 2578,
      "Ġtechniques": 2579,
      "Ġ29": 2580,
      "Ġfl": 2581,
      "Ġregression": 2582,
      "ĠCase": 2583,
      "ĠNew": 2584,
      "oft": 2585,
      "Ġsampling": 2586,
      "Ġinstead": 2587,
      "Ġnumbers": 2588,
      "Ġuniformly": 2589,
      "ĠInformation": 2590,
      "Ġbase": 2591,
      "Ġspaces": 2592,
      "Ġ)âĪĴ": 2593,
      "lic": 2594,
      "free": 2595,
      "Ġbits": 2596,
      "Ġcontaining": 2597,
      "Îĺ": 2598,
      "Ġ}.": 2599,
      "Ġsimply": 2600,
      "Ġfrequ": 2601,
      "Ġdistinct": 2602,
      "raw": 2603,
      "Ġillustr": 2604,
      "Ġinduc": 2605,
      "ĠĔ": 2606,
      "Ġinduced": 2607,
      "Ġsumm": 2608,
      "ready": 2609,
      "ressed": 2610,
      "rict": 2611,
      "Ġprojection": 2612,
      "osium": 2613,
      "ayes": 2614,
      "ĠâĢĺ": 2615,
      "Ġtar": 2616,
      "ĠSc": 2617,
      "Ġquantum": 2618,
      "Ġ50": 2619,
      "Ġalmost": 2620,
      "Ġsplit": 2621,
      "Ġdef": 2622,
      "Ġ32": 2623,
      "Ġprovided": 2624,
      "Ġimage": 2625,
      "Ġratio": 2626,
      "igur": 2627,
      "ategor": 2628,
      "dd": 2629,
      "ĠSec": 2630,
      "Ġtakes": 2631,
      "Ġdone": 2632,
      "org": 2633,
      "Ġidentity": 2634,
      "ĠAppendix": 2635,
      "Ġturn": 2636,
      "ropy": 2637,
      "44": 2638,
      "ans": 2639,
      "Ġexpect": 2640,
      "Ġobserve": 2641,
      "ention": 2642,
      "Ġalready": 2643,
      "sists": 2644,
      "âĢĶ": 2645,
      "Ġsk": 2646,
      "elian": 2647,
      "Ġbetter": 2648,
      "Ġstrategy": 2649,
      "Ġgoal": 2650,
      "ĠBi": 2651,
      "Ġcorresponds": 2652,
      "Ġconsists": 2653,
      "pri": 2654,
      "Ġmaps": 2655,
      "Ġï£¶": 2656,
      "Ġ],": 2657,
      "Ġsuppose": 2658,
      "Ġsmaller": 2659,
      "Ġequivalence": 2660,
      "Ġcovariance": 2661,
      "su": 2662,
      "Ġsequences": 2663,
      "ĠProc": 2664,
      "Ġdirectly": 2665,
      "Ġcollection": 2666,
      "Ġclassical": 2667,
      "Ġcompil": 2668,
      "Ġautomorphism": 2669,
      "tation": 2670,
      "Ġauth": 2671,
      "oun": 2672,
      "ĠAll": 2673,
      "Ġavailable": 2674,
      "ume": 2675,
      "ĠProgramming": 2676,
      "Ġ{(": 2677,
      "gether": 2678,
      "Ġtogether": 2679,
      "Ġcentral": 2680,
      "SP": 2681,
      "irical": 2682,
      "Ġdep": 2683,
      "Ġï£«": 2684,
      "Ġamong": 2685,
      "Ġmachine": 2686,
      "47": 2687,
      "Ġinstr": 2688,
      "Ġwhat": 2689,
      "49": 2690,
      "Ġstrict": 2691,
      "Ġcoordin": 2692,
      "Ġrange": 2693,
      "sequence": 2694,
      "Ġboundary": 2695,
      "ribution": 2696,
      "vir": 2697,
      "Ġmessage": 2698,
      "Ġselection": 2699,
      "ological": 2700,
      "âĭ": 2701,
      "ests": 2702,
      "Ġsuper": 2703,
      "42": 2704,
      "aches": 2705,
      "ather": 2706,
      "Ġ2012": 2707,
      "ging": 2708,
      "chit": 2709,
      "Ġunion": 2710,
      "Ġsignificant": 2711,
      "Ġword": 2712,
      "Ġabs": 2713,
      "linear": 2714,
      "Ġresulting": 2715,
      "Ġstart": 2716,
      "ĠâĪ¨": 2717,
      "ĠEach": 2718,
      "Ġtrivial": 2719,
      "Ġpreser": 2720,
      "Ġem": 2721,
      "vable": 2722,
      "Ġimprove": 2723,
      "Ġfour": 2724,
      "Ġ40": 2725,
      "Ġxn": 2726,
      "Ġclos": 2727,
      "ĠâĪĩ": 2728,
      "Ġdescribe": 2729,
      "raction": 2730,
      "Ġalong": 2731,
      "ined": 2732,
      "Ġhard": 2733,
      "Ġeasily": 2734,
      "Ġsense": 2735,
      "ayer": 2736,
      "wr": 2737,
      "itu": 2738,
      "Ġtesting": 2739,
      "Ġconditional": 2740,
      "Ġiteration": 2741,
      "set": 2742,
      "Ġ)]": 2743,
      "ï¿½ï¿½": 2744,
      "Ġtransmission": 2745,
      "Ġï£¯": 2746,
      "Ġĕ": 2747,
      "Ġ00": 2748,
      "Ġuseful": 2749,
      "Ġsubgraph": 2750,
      "bi": 2751,
      "ĠSimilarly": 2752,
      "ĠAlso": 2753,
      "Ġsa": 2754,
      "Ġsched": 2755,
      "Ġâľ": 2756,
      "Ġisomorphism": 2757,
      "Ġthresh": 2758,
      "Ġhyperbolic": 2759,
      "Ġliter": 2760,
      "Ġorth": 2761,
      "elihood": 2762,
      "enari": 2763,
      "Ġlogic": 2764,
      "Ġentries": 2765,
      "oretical": 2766,
      "Ġinvariant": 2767,
      "âĹıâĹıâĹıâĹı": 2768,
      "ĠSymposium": 2769,
      "Ġconven": 2770,
      "Ġnotion": 2771,
      "ards": 2772,
      "Ġtriang": 2773,
      "view": 2774,
      "Ġansw": 2775,
      "100": 2776,
      "55": 2777,
      "viron": 2778,
      "ĠNext": 2779,
      "ĠâīĪ": 2780,
      "(âĪĴ": 2781,
      "versal": 2782,
      "ĠâĬ¥": 2783,
      "asible": 2784,
      "ĠGe": 2785,
      "Ġïģ": 2786,
      "NR": 2787,
      "ĠIndeed": 2788,
      "Ġdel": 2789,
      "ensor": 2790,
      "Ġassumptions": 2791,
      "oti": 2792,
      "Ġirre": 2793,
      "rie": 2794,
      "Ġsolutions": 2795,
      "Ġimmedi": 2796,
      "Ġbasic": 2797,
      "Ġtarget": 2798,
      "elf": 2799,
      "ormal": 2800,
      "âĪĪ[": 2801,
      "ĠTech": 2802,
      "ĠBS": 2803,
      "width": 2804,
      "PL": 2805,
      ")),": 2806,
      "trivial": 2807,
      "Ġapproximate": 2808,
      "ireless": 2809,
      "ĠRd": 2810,
      "Ġcontradiction": 2811,
      "Ġsparse": 2812,
      "Ġreceiv": 2813,
      "ĠLie": 2814,
      "Ġconfigur": 2815,
      "Ġupdate": 2816,
      "Ġqueries": 2817,
      "Ġnumer": 2818,
      "ĠProcess": 2819,
      "Ġbran": 2820,
      "ËĨ": 2821,
      "ĠPn": 2822,
      "rees": 2823,
      "Ġdifference": 2824,
      "Ġï£º": 2825,
      "co": 2826,
      "uk": 2827,
      "Ġlocally": 2828,
      "Ġremov": 2829,
      "Ġformal": 2830,
      "ration": 2831,
      "Î¶": 2832,
      "ture": 2833,
      "ale": 2834,
      "Ġclassif": 2835,
      "Pro": 2836,
      "ĠMon": 2837,
      "idence": 2838,
      "Ġeigenvalu": 2839,
      "Ġï£Ń": 2840,
      "03": 2841,
      "bo": 2842,
      "Ġcycle": 2843,
      "Ġrepe": 2844,
      "Ġdepends": 2845,
      "RE": 2846,
      "Ġabelian": 2847,
      "ĠObser": 2848,
      "omes": 2849,
      "Ġbit": 2850,
      "((": 2851,
      "Ġnecessary": 2852,
      "Ġmapping": 2853,
      "Ġreduced": 2854,
      "Ġapplying": 2855,
      "Ġhowever": 2856,
      "Ġwritten": 2857,
      "ĠBayes": 2858,
      "zero": 2859,
      "ĠĈ": 2860,
      "ometry": 2861,
      "ortion": 2862,
      "41": 2863,
      "Ġband": 2864,
      "AP": 2865,
      "56": 2866,
      "Ġ2011": 2867,
      "âĩĴ": 2868,
      "ĠMa": 2869,
      "Ġsimul": 2870,
      "Ġsubstit": 2871,
      "Ġfunctional": 2872,
      "gment": 2873,
      "Ġacc": 2874,
      "ĠSL": 2875,
      "ights": 2876,
      "ĠMathematics": 2877,
      "Ġequality": 2878,
      "ash": 2879,
      "Ġrese": 2880,
      "Ġinference": 2881,
      "face": 2882,
      "alse": 2883,
      "kelihood": 2884,
      "Ġcomparison": 2885,
      "irect": 2886,
      "Ġstra": 2887,
      "ps": 2888,
      "echan": 2889,
      "Ġess": 2890,
      "Ġgrow": 2891,
      "iagram": 2892,
      "Ġconstruc": 2893,
      "ooth": 2894,
      "ited": 2895,
      "Ġarray": 2896,
      "Ġseen": 2897,
      "Ġdesired": 2898,
      "back": 2899,
      "DP": 2900,
      "Ġ2010": 2901,
      "atures": 2902,
      "ĠNot": 2903,
      "Ġempty": 2904,
      "Ð°": 2905,
      "Ġstructures": 2906,
      "Ġglobal": 2907,
      "Ġscenari": 2908,
      "Ġstring": 2909,
      "Ġdisjoint": 2910,
      "Ġ*": 2911,
      "ished": 2912,
      "Ġobjects": 2913,
      "ably": 2914,
      "Ġincreasing": 2915,
      "tree": 2916,
      "sub": 2917,
      "Ġisomorphic": 2918,
      "undam": 2919,
      "Ġdown": 2920,
      "iting": 2921,
      "Ġanalog": 2922,
      "ochastic": 2923,
      "Ġlanguages": 2924,
      "ĠÂ±": 2925,
      "ches": 2926,
      "Ġbuil": 2927,
      "Ġremains": 2928,
      "though": 2929,
      "ĠDis": 2930,
      "ered": 2931,
      "ras": 2932,
      "Ġneighbor": 2933,
      "uting": 2934,
      "ater": 2935,
      "77": 2936,
      "Ġembedding": 2937,
      "ons": 2938,
      "...,": 2939,
      "ements": 2940,
      "Îł": 2941,
      "AB": 2942,
      "Ġestimators": 2943,
      "Ġpass": 2944,
      "Ġdele": 2945,
      "ĠAnaly": 2946,
      "ĠBe": 2947,
      "St": 2948,
      "Ġaccur": 2949,
      "Ġneeded": 2950,
      "Ġla": 2951,
      "Ġpot": 2952,
      "Ġseries": 2953,
      "Ġrob": 2954,
      "Ġdraw": 2955,
      "Ġ35": 2956,
      "ird": 2957,
      "98": 2958,
      "IS": 2959,
      "xk": 2960,
      "Ġpop": 2961,
      "Ġfi": 2962,
      "Ġempirical": 2963,
      "Ġcategor": 2964,
      "Ġdetails": 2965,
      "Ġrecursive": 2966,
      "Ġyi": 2967,
      "Ġaddress": 2968,
      "ĠBut": 2969,
      "ÑĤ": 2970,
      "Ġdual": 2971,
      "ining": 2972,
      "Ġstream": 2973,
      "Ġdu": 2974,
      "ĠâĢĶ": 2975,
      "Ġstudied": 2976,
      "Ġinverse": 2977,
      "Ġbecomes": 2978,
      "iod": 2979,
      "ĠModel": 2980,
      "erl": 2981,
      "ĠĚ": 2982,
      "Ġmom": 2983,
      "rable": 2984,
      "Ġobserved": 2985,
      "Ġenviron": 2986,
      "Ġ36": 2987,
      "Ð¸": 2988,
      "ĠAnd": 2989,
      "orphism": 2990,
      "Ġatom": 2991,
      "Ġrest": 2992,
      "43": 2993,
      "ĠDec": 2994,
      "Ġentropy": 2995,
      "Ġthread": 2996,
      "ott": 2997,
      "ĠSi": 2998,
      "igroup": 2999,
      "Ġcos": 3000,
      "Ġstochastic": 3001,
      "ĠâĢ²âĢ²": 3002,
      "Ġvarious": 3003,
      "ader": 3004,
      "Ġbehavior": 3005,
      "Ġsatisfied": 3006,
      "Ġcluster": 3007,
      "Ġpriv": 3008,
      "Ġidea": 3009,
      "ww": 3010,
      "ĠEqu": 3011,
      "Ġinser": 3012,
      "95": 3013,
      "Ġtransformation": 3014,
      "Ġchannels": 3015,
      "Ġduring": 3016,
      "tically": 3017,
      "Ġdomin": 3018,
      "Ġstatistical": 3019,
      "vice": 3020,
      "na": 3021,
      "Ġmakes": 3022,
      "Ġgeneralized": 3023,
      "Ġcount": 3024,
      "Ġinstances": 3025,
      "Ġrele": 3026,
      "ĠZh": 3027,
      "ĠMarkov": 3028,
      "Ġodd": 3029,
      "approxim": 3030,
      "Ġeffect": 3031,
      "chron": 3032,
      "Ġmight": 3033,
      "76": 3034,
      "Ġadjac": 3035,
      "Ġtaking": 3036,
      "Ġblocks": 3037,
      "Ġarguments": 3038,
      "mes": 3039,
      "vestig": 3040,
      "Ġpermutation": 3041,
      "Ġsuccess": 3042,
      "ducible": 3043,
      "Ġobservation": 3044,
      "Ġsolve": 3045,
      "Ġextended": 3046,
      "198": 3047,
      "ames": 3048,
      "Ġbegin": 3049,
      "Ġful": 3050,
      "Ġderived": 3051,
      "otent": 3052,
      "Ġvolume": 3053,
      "timal": 3054,
      "ext": 3055,
      "ĠAi": 3056,
      "fined": 3057,
      "sid": 3058,
      "Ġelse": 3059,
      "self": 3060,
      "inter": 3061,
      "Ġevaluation": 3062,
      "Ġoften": 3063,
      "Ġdim": 3064,
      "Ġsubsp": 3065,
      "aries": 3066,
      "Ġoff": 3067,
      "Ġproofs": 3068,
      "ĠBo": 3069,
      "Ġtechnique": 3070,
      "96": 3071,
      "Ġmechan": 3072,
      "ogonal": 3073,
      "Ġlatter": 3074,
      "Ġconstants": 3075,
      "Ġspectral": 3076,
      "iii": 3077,
      "ava": 3078,
      "Ġ(Â·": 3079,
      "Ġsufficiently": 3080,
      "ĠIN": 3081,
      "âĭĨ": 3082,
      "ised": 3083,
      "lu": 3084,
      "ley": 3085,
      "Ġvis": 3086,
      "Ġfew": 3087,
      "ĠPress": 3088,
      "seud": 3089,
      "Ġï¬ģ": 3090,
      "Ġconstructed": 3091,
      "Ġmonot": 3092,
      "EL": 3093,
      "iver": 3094,
      "Ġquestion": 3095,
      "Ġdiagram": 3096,
      "Ġhaving": 3097,
      "Ġable": 3098,
      "aring": 3099,
      "DS": 3100,
      "Ġsuffic": 3101,
      "Ìĥ(": 3102,
      "||": 3103,
      "CC": 3104,
      "Ġinteresting": 3105,
      "aps": 3106,
      "Ġmark": 3107,
      "ĠComputing": 3108,
      "Ġï£¸": 3109,
      "MS": 3110,
      "ĠâĪŀ.": 3111,
      "Ġsi": 3112,
      "Ġfinal": 3113,
      "fficients": 3114,
      "Ġdefinitions": 3115,
      "ĠStep": 3116,
      "mark": 3117,
      "bound": 3118,
      "ĠLog": 3119,
      "exp": 3120,
      "with": 3121,
      "ĠIntro": 3122,
      "ĠPi": 3123,
      "Ġworks": 3124,
      "Ġobservations": 3125,
      "Ġprotoc": 3126,
      "ift": 3127,
      "Ġinvestig": 3128,
      "58": 3129,
      "Ġsend": 3130,
      "ET": 3131,
      "Ġpossib": 3132,
      "Ġmar": 3133,
      "Ġfeasible": 3134,
      "âĬ¥": 3135,
      "Ġxk": 3136,
      "Ġfac": 3137,
      "ĠOther": 3138,
      "ĠST": 3139,
      "ah": 3140,
      "Ġalgebraic": 3141,
      "osing": 3142,
      "Ġ[[": 3143,
      "Ġ2009": 3144,
      "resents": 3145,
      "Ġcomputational": 3146,
      "berg": 3147,
      "enc": 3148,
      "ĠStatistics": 3149,
      "Ġexpressions": 3150,
      "Ġdetection": 3151,
      "Ġquasi": 3152,
      "ĠCombin": 3153,
      "Ġrepresents": 3154,
      "Ð½": 3155,
      "rel": 3156,
      "Ġexponential": 3157,
      "Ġweights": 3158,
      "Ġhomomorphism": 3159,
      "ĠThat": 3160,
      "lock": 3161,
      "Ġcoefficients": 3162,
      "aves": 3163,
      "Ġachieve": 3164,
      "Ġobjective": 3165,
      "ĠSer": 3166,
      "zed": 3167,
      "cent": 3168,
      "Ġequations": 3169,
      "ĠDefine": 3170,
      "sequently": 3171,
      "undamental": 3172,
      "let": 3173,
      "utes": 3174,
      "Ġdeterministic": 3175,
      "Ġmention": 3176,
      "Ġcompared": 3177,
      "Ġsymbols": 3178,
      "izer": 3179,
      "Ïĩ": 3180,
      "bert": 3181,
      "vals": 3182,
      "Ġsymbol": 3183,
      "Ġmo": 3184,
      "gine": 3185,
      "ĠJo": 3186,
      "eter": 3187,
      "Ġ31": 3188,
      "Ġmade": 3189,
      "oftware": 3190,
      "Ġïĥ": 3191,
      "Ġcar": 3192,
      "rier": 3193,
      "pped": 3194,
      "Ġremaining": 3195,
      "Ġself": 3196,
      "79": 3197,
      "Ġcirc": 3198,
      "Ġdescri": 3199,
      "ored": 3200,
      "alities": 3201,
      "Ġcyclic": 3202,
      "Ġactions": 3203,
      "Ġcomposition": 3204,
      "II": 3205,
      "Ġti": 3206,
      "Ġei": 3207,
      "ĠMar": 3208,
      "Ġsw": 3209,
      "ecture": 3210,
      "ledge": 3211,
      "forward": 3212,
      "ously": 3213,
      "ĠAbstract": 3214,
      "Ġdiscussion": 3215,
      "ED": 3216,
      "Ġprecisely": 3217,
      "Ġitems": 3218,
      "ĠFix": 3219,
      "ĠOut": 3220,
      "RA": 3221,
      "66": 3222,
      "fix": 3223,
      "Ġhel": 3224,
      "Ġrecall": 3225,
      "ret": 3226,
      "ĠâĪĥ": 3227,
      "Ġmeasures": 3228,
      "Ġprime": 3229,
      "Ġtable": 3230,
      "ĠAlgorithms": 3231,
      "ĠSystems": 3232,
      "Ġderive": 3233,
      "ĠSpec": 3234,
      "Ġsort": 3235,
      "ĠAnalysis": 3236,
      "Ġpur": 3237,
      "Ġacts": 3238,
      "EC": 3239,
      "stand": 3240,
      "Ġgenerating": 3241,
      "ÌĮ": 3242,
      "ips": 3243,
      "Ġradi": 3244,
      "Ġrepresented": 3245,
      "Ġsupported": 3246,
      "Ġapproaches": 3247,
      "Ġcore": 3248,
      "Ġdirected": 3249,
      "Ġquad": 3250,
      "Ġjoint": 3251,
      "mas": 3252,
      "Ġleads": 3253,
      "ĠSn": 3254,
      "Ġthreshold": 3255,
      "level": 3256,
      "Ġstraight": 3257,
      "ĠGL": 3258,
      "OP": 3259,
      "mar": 3260,
      "isk": 3261,
      "(|": 3262,
      "ameter": 3263,
      "Ġrather": 3264,
      "ridge": 3265,
      "ĠTechn": 3266,
      "ĠLa": 3267,
      "overy": 3268,
      "ĠEr": 3269,
      "Ġassignment": 3270,
      "OL": 3271,
      "Ġfactors": 3272,
      "ape": 3273,
      "Ġinclude": 3274,
      "oded": 3275,
      "MA": 3276,
      "Ġ2008": 3277,
      "ĠËĨ": 3278,
      "Ġliterature": 3279,
      "Ġdiagonal": 3280,
      "Ġdiffic": 3281,
      "Ġsubsets": 3282,
      "ots": 3283,
      "Ġlook": 3284,
      "Ġque": 3285,
      "ĠGener": 3286,
      "ĠCi": 3287,
      "ĠIntroduction": 3288,
      "Ġsug": 3289,
      "Ġincreases": 3290,
      "Ġquoti": 3291,
      "umer": 3292,
      "Ġcli": 3293,
      "âĪĤ": 3294,
      "ingu": 3295,
      "Ġnull": 3296,
      "fect": 3297,
      "Ġprocessing": 3298,
      "ĠAssumption": 3299,
      "ÑĢ": 3300,
      "Ġhal": 3301,
      "Ġconsequence": 3302,
      "Ġnegative": 3303,
      "ĠProblem": 3304,
      "Ġui": 3305,
      "Ġenti": 3306,
      "ĠEq": 3307,
      "Ġitself": 3308,
      "alk": 3309,
      "Ġlikelihood": 3310,
      "Ġintersection": 3311,
      "Ġ)}": 3312,
      "Ġtechn": 3313,
      "ĠMe": 3314,
      "Ġirreducible": 3315,
      "Ġunknown": 3316,
      "ins": 3317,
      "ĠTransactions": 3318,
      "Âł": 3319,
      "Ġtask": 3320,
      "fficiency": 3321,
      "Ġexplain": 3322,
      "Ġrewr": 3323,
      "Ġwi": 3324,
      "Ġstarting": 3325,
      "Ġreach": 3326,
      "inci": 3327,
      "ogene": 3328,
      "Ġintegers": 3329,
      "Ġestimates": 3330,
      "Ġsuffices": 3331,
      "ĠVar": 3332,
      "Ġsimulation": 3333,
      "nder": 3334,
      "Ġutil": 3335,
      "Ġlater": 3336,
      "Ġpseud": 3337,
      "Ġ].": 3338,
      "68": 3339,
      "FT": 3340,
      "Ñģ": 3341,
      "Ġfinding": 3342,
      "ĠDen": 3343,
      "Ġreduce": 3344,
      "Ġassumed": 3345,
      "erior": 3346,
      "ĠPS": 3347,
      "tif": 3348,
      "Ġincluding": 3349,
      "ĠAg": 3350,
      "ĠRi": 3351,
      "acle": 3352,
      "âĹ¦": 3353,
      "Ġdemonstr": 3354,
      "unct": 3355,
      "Ġrates": 3356,
      "ĠPl": 3357,
      "uture": 3358,
      "Ġvan": 3359,
      "ector": 3360,
      "ĠÄı": 3361,
      "tes": 3362,
      "ermine": 3363,
      "fine": 3364,
      "CH": 3365,
      "Ġreturns": 3366,
      "Ġerrors": 3367,
      "Ġsmooth": 3368,
      "Ġexistence": 3369,
      "65": 3370,
      "Ġtrace": 3371,
      "ĠXn": 3372,
      "Ġanten": 3373,
      "ili": 3374,
      "ĠÎ¹": 3375,
      "Ġappropri": 3376,
      "ope": 3377,
      "Ġdiscussed": 3378,
      "orts": 3379,
      "ivid": 3380,
      "Ġstrictly": 3381,
      "Ġmechanism": 3382,
      "Ġestablish": 3383,
      "ĠStr": 3384,
      "Ġlattice": 3385,
      "Ġfalse": 3386,
      "where": 3387,
      "Ġdetermined": 3388,
      "Ġcoding": 3389,
      "wor": 3390,
      "Ġfundamental": 3391,
      "Ġgenerate": 3392,
      "ograph": 3393,
      "âĢł": 3394,
      "Ġgain": 3395,
      "rence": 3396,
      "âĨ": 3397,
      "Ġfeatures": 3398,
      "Ġresearch": 3399,
      "lec": 3400,
      "Ġgeodes": 3401,
      "Ġcross": 3402,
      "ĠCont": 3403,
      "ĠMet": 3404,
      "cri": 3405,
      "LP": 3406,
      "ĠGraph": 3407,
      "Ġsitu": 3408,
      "ÌĤ(": 3409,
      "jecture": 3410,
      "Ġinterference": 3411,
      "ĠGu": 3412,
      "Ġï£³": 3413,
      "CA": 3414,
      "ĠWhile": 3415,
      "Ġdecision": 3416,
      "ĠOr": 3417,
      "ĠâĪŀ,": 3418,
      "Ġï£²": 3419,
      "ĠGi": 3420,
      "Ġdatas": 3421,
      "earch": 3422,
      "arl": 3423,
      "Ġlocation": 3424,
      "Ġpn": 3425,
      "Ġke": 3426,
      "ake": 3427,
      "Ġdetermine": 3428,
      "97": 3429,
      "ĠVer": 3430,
      "ĠUSA": 3431,
      "Ġaf": 3432,
      "0000": 3433,
      "Ġgeometric": 3434,
      "ĠNP": 3435,
      "Ġ60": 3436,
      "ki": 3437,
      "irt": 3438,
      "gebras": 3439,
      "Ġcriter": 3440,
      "Ġfraction": 3441,
      "ĠMulti": 3442,
      "Ġï£±": 3443,
      "ĠDi": 3444,
      "ising": 3445,
      "Ġweighted": 3446,
      "Ġci": 3447,
      "anced": 3448,
      "like": 3449,
      "Ġxj": 3450,
      "ares": 3451,
      "hi": 3452,
      "Ġstatistics": 3453,
      "Ġlines": 3454,
      "Ġthird": 3455,
      "Ġexisting": 3456,
      "Ġalternative": 3457,
      "ĠÂ§": 3458,
      "den": 3459,
      "Ġnamely": 3460,
      "Ġtests": 3461,
      "Ġshall": 3462,
      "Ġunderlying": 3463,
      "Ġsmallest": 3464,
      "Ġclustering": 3465,
      "Ġproposition": 3466,
      "yi": 3467,
      "Ġ38": 3468,
      "Ġavoid": 3469,
      "ĠYork": 3470,
      "Ġbeam": 3471,
      "Ġ$": 3472,
      "Ġincrease": 3473,
      "ĠLangu": 3474,
      "ei": 3475,
      "Ġdecoding": 3476,
      "Ġunc": 3477,
      "ux": 3478,
      "Ġmut": 3479,
      "ecting": 3480,
      "HE": 3481,
      ".-": 3482,
      "An": 3483,
      "Ġperiod": 3484,
      "Ġallocation": 3485,
      "dered": 3486,
      "Ġconsistent": 3487,
      "Ġstation": 3488,
      "ĠâĪĳ": 3489,
      "ĠÂł": 3490,
      "Ġinc": 3491,
      "AG": 3492,
      "Ġrobust": 3493,
      "ĠClaim": 3494,
      "Ġperformed": 3495,
      "ĠRep": 3496,
      "izations": 3497,
      "67": 3498,
      "Ġimplemented": 3499,
      "way": 3500,
      "Ġ//": 3501,
      "Î¨": 3502,
      "cep": 3503,
      "ĠDist": 3504,
      "ĠMin": 3505,
      "Ġchild": 3506,
      "oper": 3507,
      "Ġpropose": 3508,
      "ĠEs": 3509,
      "60": 3510,
      "ploy": 3511,
      "OD": 3512,
      "Ġenvironment": 3513,
      "pi": 3514,
      "mat": 3515,
      "Ġtopology": 3516,
      "Ġsquare": 3517,
      "oses": 3518,
      "Ġintervals": 3519,
      "aster": 3520,
      "cell": 3521,
      "âĢľ": 3522,
      "Ġnear": 3523,
      "Ġě": 3524,
      "Ġmaintain": 3525,
      "Ġselected": 3526,
      "ache": 3527,
      "Ġjob": 3528,
      "Ġnil": 3529,
      "typ": 3530,
      "ĠData": 3531,
      "Ġschedul": 3532,
      "negative": 3533,
      "PU": 3534,
      "Ġreceived": 3535,
      "ling": 3536,
      "Ġ33": 3537,
      "andid": 3538,
      "eness": 3539,
      "OC": 3540,
      "igure": 3541,
      "ĠResearch": 3542,
      "dx": 3543,
      "ĠWork": 3544,
      "Ġsemigroup": 3545,
      "57": 3546,
      "Ġexpectation": 3547,
      "anges": 3548,
      "SS": 3549,
      "onical": 3550,
      "Ġtaken": 3551,
      "which": 3552,
      "Ġmis": 3553,
      "Ġuntil": 3554,
      "ĠNotice": 3555,
      "]]": 3556,
      "Ġpolic": 3557,
      "ading": 3558,
      "ĠâĭĨ": 3559,
      "Ġgenerality": 3560,
      "IMO": 3561,
      "Ġmatch": 3562,
      "Ġwhenever": 3563,
      "Ġwant": 3564,
      "âĪ¼": 3565,
      "ĠUnder": 3566,
      "64": 3567,
      "Ġstrongly": 3568,
      "Ġorthogonal": 3569,
      "Ġreport": 3570,
      "Ġtor": 3571,
      "unc": 3572,
      "edy": 3573,
      "mail": 3574,
      "ubl": 3575,
      "Ġtheoretical": 3576,
      ".:": 3577,
      "Ġlargest": 3578,
      "Ġ)/": 3579,
      "2015": 3580,
      "Ġstable": 3581,
      "Ġsolving": 3582,
      "Ġneeds": 3583,
      "atorial": 3584,
      "Ġdepth": 3585,
      "ĠTw": 3586,
      "sy": 3587,
      "Ġiden": 3588,
      "Ġ_": 3589,
      "ĠYi": 3590,
      "Ġball": 3591,
      "Ġproceed": 3592,
      "Ġstraightforward": 3593,
      "Ġfile": 3594,
      "2016": 3595,
      "Ġplan": 3596,
      "ecause": 3597,
      "Ġoperators": 3598,
      "ĠObserve": 3599,
      "ski": 3600,
      "ratic": 3601,
      "Ġ2007": 3602,
      "Ġrestriction": 3603,
      "Ġ2006": 3604,
      "Ġrestricted": 3605,
      "Ġcolumns": 3606,
      "Ġconnection": 3607,
      "Ġschemes": 3608,
      "ench": 3609,
      "ansion": 3610,
      "Ġstatic": 3611,
      "az": 3612,
      "ĠSee": 3613,
      "Ġinequalities": 3614,
      "ĠïĢŃ": 3615,
      "Ġexperiments": 3616,
      "Ġanswer": 3617,
      "Ġknowledge": 3618,
      "stit": 3619,
      "ĠIII": 3620,
      "})": 3621,
      "Ġasser": 3622,
      "ï¬": 3623,
      "ĠCH": 3624,
      "Ġonce": 3625,
      "ĠJava": 3626,
      "Ġguarantee": 3627,
      "âĪĩ": 3628,
      "Ð¾Ð": 3629,
      "lar": 3630,
      "Ġfar": 3631,
      "Ġpe": 3632,
      "Ġgrad": 3633,
      "ipar": 3634,
      "Ġones": 3635,
      "Ġtu": 3636,
      "Ġparts": 3637,
      "Ġpractice": 3638,
      "Ġaff": 3639,
      "Ġkn": 3640,
      "ĠâĹıâĹıâĹı": 3641,
      "ĠSoc": 3642,
      "Ġdx": 3643,
      "ĠRel": 3644,
      "vergence": 3645,
      "Ġsubstitution": 3646,
      "conn": 3647,
      "ui": 3648,
      "Ġstabil": 3649,
      "BS": 3650,
      "Ġconfiguration": 3651,
      "Ġcompare": 3652,
      "ĠLP": 3653,
      "59": 3654,
      "Ġfully": 3655,
      "Ġactive": 3656,
      "Ġrepresentations": 3657,
      "Ġremark": 3658,
      "oder": 3659,
      "hom": 3660,
      "Ġ34": 3661,
      "Ġguarantees": 3662,
      "ĠIs": 3663,
      "Ġ(|": 3664,
      "Ġcandid": 3665,
      "âĪļ": 3666,
      "Ġforms": 3667,
      "Ġcaus": 3668,
      "Â±": 3669,
      "Ġsuit": 3670,
      "omin": 3671,
      "gener": 3672,
      "ierarch": 3673,
      "Ġadded": 3674,
      "Ġfilter": 3675,
      "88": 3676,
      "go": 3677,
      "ĠDes": 3678,
      "type": 3679,
      "Ġmov": 3680,
      "ĠSP": 3681,
      "ardin": 3682,
      "usion": 3683,
      "Ġadjacent": 3684,
      "ially": 3685,
      "ĠCondition": 3686,
      "Ġdoi": 3687,
      "Ġ37": 3688,
      "ĠDep": 3689,
      "................": 3690,
      "Ġindivid": 3691,
      "ĠSm": 3692,
      "Ëľ": 3693,
      "ĠMathematical": 3694,
      "ĠBayesian": 3695,
      "TS": 3696,
      "ĠFe": 3697,
      "Ġfrequency": 3698,
      "Ġauthors": 3699,
      "print": 3700,
      "ML": 3701,
      "Ġconverges": 3702,
      "ïģ": 3703,
      "ĠTi": 3704,
      "ms": 3705,
      "Ġvirt": 3706,
      "Ġpers": 3707,
      "Ġreference": 3708,
      "Ġsubspace": 3709,
      "Ġexcept": 3710,
      "Ġiterations": 3711,
      "Ġreceiver": 3712,
      "path": 3713,
      "Ġimmediately": 3714,
      "ĠVi": 3715,
      "Ġefficiency": 3716,
      "Ġverify": 3717,
      "Ġposterior": 3718,
      "Ġpurp": 3719,
      "Ġfuture": 3720,
      "âĢĿ.": 3721,
      "Ġpractical": 3722,
      "Ġ2000": 3723,
      "51": 3724,
      "Ġfore": 3725,
      "ract": 3726,
      "olute": 3727,
      "ources": 3728,
      "ste": 3729,
      "lete": 3730,
      "Ġensure": 3731,
      "Ġdepending": 3732,
      "Ġuniversal": 3733,
      "CL": 3734,
      "UL": 3735,
      "ched": 3736,
      "Ġdeveloped": 3737,
      "Ġmove": 3738,
      "ĠFn": 3739,
      "ametric": 3740,
      "Ġdescription": 3741,
      "ĠJan": 3742,
      "Re": 3743,
      "Ġtopological": 3744,
      "Ġstack": 3745,
      "Ġslight": 3746,
      "Ġquotient": 3747,
      "rum": 3748,
      "ĠAmer": 3749,
      "ogeneous": 3750,
      "Ġpotential": 3751,
      "69": 3752,
      "Ġsignals": 3753,
      "Ġfast": 3754,
      "Ġ%": 3755,
      "enchmark": 3756,
      "Ġintegral": 3757,
      "wards": 3758,
      "empty": 3759,
      "pled": 3760,
      "mits": 3761,
      "Ġevents": 3762,
      "xn": 3763,
      "ĠCamb": 3764,
      "52": 3765,
      "rec": 3766,
      "Ġshortest": 3767,
      "53": 3768,
      "ĠPer": 3769,
      "Ġmed": 3770,
      "Ġprobabilities": 3771,
      "Ġcolor": 3772,
      "do": 3773,
      "case": 3774,
      "olds": 3775,
      "Ġregard": 3776,
      "Ġwireless": 3777,
      "ĠÂ¨": 3778,
      "Ġcanonical": 3779,
      "Ġchanges": 3780,
      "Ġcommut": 3781,
      "Ġdistingu": 3782,
      "Ġtail": 3783,
      "Ġni": 3784,
      "Ġnumerical": 3785,
      "Ġhalf": 3786,
      "ĠVol": 3787,
      "aking": 3788,
      "ĠMan": 3789,
      "andom": 3790,
      "inear": 3791,
      "54": 3792,
      "Ġbelongs": 3793,
      "Ġtoo": 3794,
      "Ġdt": 3795,
      "Ġachieved": 3796,
      "Ġcontrast": 3797,
      "MP": 3798,
      "Ġindices": 3799,
      "atives": 3800,
      "Ġgap": 3801,
      "ATION": 3802,
      "ROU": 3803,
      "ĠHa": 3804,
      "2014": 3805,
      "educe": 3806,
      "Ġgi": 3807,
      "Ġentry": 3808,
      "Ġconsidering": 3809,
      "ĠAfter": 3810,
      "Ġcoll": 3811,
      "rely": 3812,
      "Ġcontribution": 3813,
      "Ġbn": 3814,
      "Ġorient": 3815,
      "Ġabstr": 3816,
      "ĠCambridge": 3817,
      "Ġprotocol": 3818,
      "invariant": 3819,
      "ĠÎ±i": 3820,
      "Ġchall": 3821,
      "Ġappropriate": 3822,
      "Ġ2005": 3823,
      "Ġdependence": 3824,
      "Ġrisk": 3825,
      "ĠCar": 3826,
      "Ġrows": 3827,
      "Ġaround": 3828,
      "Ġrelax": 3829,
      "Ġgeodesic": 3830,
      "Ġsyn": 3831,
      "ji": 3832,
      "Ġmessages": 3833,
      "Ġnecessarily": 3834,
      "pe": 3835,
      "ĠImp": 3836,
      "ided": 3837,
      "Ġspann": 3838,
      "ush": 3839,
      "Ġarri": 3840,
      "etermin": 3841,
      "Ġexplo": 3842,
      "head": 3843,
      "ĠAP": 3844,
      "ĠSU": 3845,
      "Ġcharacteristic": 3846,
      "2013": 3847,
      "ĠBn": 3848,
      "----": 3849,
      "uck": 3850,
      "Ġruns": 3851,
      "Ġdou": 3852,
      "ĠGroup": 3853,
      "Ġabsolute": 3854,
      "Ġestimated": 3855,
      "mon": 3856,
      ")+": 3857,
      "Ġproving": 3858,
      "Ġhapp": 3859,
      "Ġfa": 3860,
      "Ġmer": 3861,
      "Ġ39": 3862,
      "Ïĳ": 3863,
      "bits": 3864,
      "Ġexpansion": 3865,
      "ank": 3866,
      "Ġï£®": 3867,
      "Ġtreat": 3868,
      "ĠâĿ": 3869,
      "Ġpen": 3870,
      "ĠThey": 3871,
      "Ġ@": 3872,
      "hard": 3873,
      "Ġextre": 3874,
      "ĠOtherwise": 3875,
      "gi": 3876,
      "DF": 3877,
      "Ġrecent": 3878,
      "che": 3879,
      "ĠCn": 3880,
      "ocal": 3881,
      "ĠĖ": 3882,
      "70": 3883,
      "ultane": 3884,
      "Ġcalls": 3885,
      "Ġcombination": 3886,
      "Ġinner": 3887,
      "Ġidentify": 3888,
      "Ġonline": 3889,
      "Ġspeed": 3890,
      "ident": 3891,
      "Ġtool": 3892,
      "ĠAm": 3893,
      "Ġmentioned": 3894,
      "learly": 3895,
      "olean": 3896,
      "OS": 3897,
      "Ġinver": 3898,
      "Ġperfect": 3899,
      "wn": 3900,
      "Ġmoment": 3901,
      "Ġtransl": 3902,
      "ĠNon": 3903,
      "(Â·": 3904,
      "Ġlib": 3905,
      "([": 3906,
      "ĠNetwork": 3907,
      "Ġinductive": 3908,
      "ĠSecond": 3909,
      "ĠEd": 3910,
      "ars": 3911,
      "Ġcorrelation": 3912,
      "ĠReg": 3913,
      "ĠIV": 3914,
      "mand": 3915,
      "Ġshowed": 3916,
      "Ġrecovery": 3917,
      "Ġobvious": 3918,
      "Ġintegr": 3919,
      "Ġkeep": 3920,
      "Ġtight": 3921,
      "Ġdeal": 3922,
      "Ġworst": 3923,
      "Ġcardin": 3924,
      "Ġlaw": 3925,
      "umber": 3926,
      "ĠInte": 3927,
      "Ġconcept": 3928,
      "Ġsens": 3929,
      "Ġsimilarly": 3930,
      "Ġoracle": 3931,
      "ĠÏĥi": 3932,
      "MM": 3933,
      "Ġindeed": 3934,
      "Ġpredicate": 3935,
      "points": 3936,
      "Ġbal": 3937,
      "ĠClearly": 3938,
      "72": 3939,
      "urity": 3940,
      "ĠAlgebra": 3941,
      "Ġleaf": 3942,
      "Ġunderstand": 3943,
      "be": 3944,
      "bility": 3945,
      "atch": 3946,
      "Ġoccurs": 3947,
      "uth": 3948,
      "Ġindividual": 3949,
      "Ġsolved": 3950,
      "Ġï£¹": 3951,
      "Ġscore": 3952,
      "gments": 3953,
      "Ġhash": 3954,
      "Ġalph": 3955,
      "ivari": 3956,
      "IP": 3957,
      "Ġhelp": 3958,
      "Ġmanif": 3959,
      "ĠOP": 3960,
      "ĠMIMO": 3961,
      "ishes": 3962,
      "73": 3963,
      "arithm": 3964,
      "Ġactually": 3965,
      "ience": 3966,
      "Ġjo": 3967,
      "Ġfeature": 3968,
      "Ġclusters": 3969,
      "Ġaim": 3970,
      "ĠPa": 3971,
      "ĠSuch": 3972,
      "Ġsugges": 3973,
      "ĠkA": 3974,
      "Ġmorphism": 3975,
      "ody": 3976,
      "gineering": 3977,
      "CP": 3978,
      "Ġseem": 3979,
      "Ġimply": 3980,
      "Ìĩ": 3981,
      "ĠAk": 3982,
      "Ġtriangle": 3983,
      "jor": 3984,
      "ested": 3985,
      "Ġcategory": 3986,
      "Ġeigenvalues": 3987,
      "Ġprefix": 3988,
      "ĠJohn": 3989,
      "Ġlabels": 3990,
      "Ġbre": 3991,
      "Ġexpressed": 3992,
      "Ġconsistency": 3993,
      "90": 3994,
      "ĠLogic": 3995,
      "Ġderivation": 3996,
      "Ġ->": 3997,
      "Ġsizes": 3998,
      "Ġordering": 3999,
      "Ġcri": 4000,
      "variate": 4001,
      "Ġpiec": 4002,
      "module": 4003,
      "Ġput": 4004,
      "ĠSk": 4005,
      "ĠMR": 4006,
      "cf": 4007,
      "Ġconclusion": 4008,
      "Ġ48": 4009,
      "iparti": 4010,
      "ĠBecause": 4011,
      "Ġhi": 4012,
      "Ġadding": 4013,
      "Ġrelevant": 4014,
      "âĬ¤": 4015,
      "isation": 4016,
      "Ġassigned": 4017,
      "ĠEstim": 4018,
      "Ġgeneric": 4019,
      "ĠLear": 4020,
      "Ġconcent": 4021,
      "Ġspecification": 4022,
      "Ġneighborhood": 4023,
      "Ġscenario": 4024,
      "Ġmodule": 4025,
      "63": 4026,
      "mann": 4027,
      "Ġhierarch": 4028,
      "Ġ2004": 4029,
      "kn": 4030,
      "Ġtensor": 4031,
      "Ġgenerators": 4032,
      "Ġappears": 4033,
      "ĠType": 4034,
      "Ġinside": 4035,
      "irected": 4036,
      "Ġscale": 4037,
      "ises": 4038,
      "bn": 4039,
      "pendence": 4040,
      "ĠSign": 4041,
      "Ġdense": 4042,
      "vent": 4043,
      "Ġquadratic": 4044,
      "ĠDenote": 4045,
      "col": 4046,
      "Ġfields": 4047,
      "âĢĿ,": 4048,
      "rammar": 4049,
      "Ġbro": 4050,
      "ĠChen": 4051,
      "Ġamount": 4052,
      "ĠSome": 4053,
      "Con": 4054,
      "process": 4055,
      "ani": 4056,
      "Ġload": 4057,
      "ĠBern": 4058,
      "Ġbox": 4059,
      "Ġdelay": 4060,
      "()": 4061,
      "asso": 4062,
      "Ġprobabilistic": 4063,
      "ros": 4064,
      "ĠDepart": 4065,
      "stein": 4066,
      "61": 4067,
      "Ġpk": 4068,
      "Ġmonoid": 4069,
      "ĠSNR": 4070,
      "ĠFound": 4071,
      "Ġdefining": 4072,
      "Ġ41": 4073,
      "ember": 4074,
      "hand": 4075,
      "Ġgreater": 4076,
      "Ġconsum": 4077,
      "ĠExp": 4078,
      "dec": 4079,
      "Ġdemand": 4080,
      "Ġpure": 4081,
      "Ġmathema": 4082,
      "rank": 4083,
      "AV": 4084,
      "Ġcompiler": 4085,
      "Ġpresentation": 4086,
      "ĠâĢł": 4087,
      "Ġspecified": 4088,
      "Ġdev": 4089,
      "ĠMo": 4090,
      "âĢ¢": 4091,
      "modular": 4092,
      "Ġleaves": 4093,
      "ĠMethod": 4094,
      "Ġgen": 4095,
      "Ġâĸ": 4096,
      "Ġsuitable": 4097,
      "ï¬ģn": 4098,
      "spec": 4099,
      "Ä±": 4100,
      "Ġsubject": 4101,
      "Ġbenchmark": 4102,
      "74": 4103,
      "ĠJun": 4104,
      "71": 4105,
      "62": 4106,
      "defined": 4107,
      "gan": 4108,
      "Ġground": 4109,
      "urable": 4110,
      "ĠGn": 4111,
      "ĠInst": 4112,
      "ĠStatistical": 4113,
      "ao": 4114,
      "Ġonto": 4115,
      "aj": 4116,
      "Ġ64": 4117,
      "Ġadvant": 4118,
      "pd": 4119,
      "Ġmotiv": 4120,
      "Ġwhereas": 4121,
      "Ġencoding": 4122,
      "EM": 4123,
      "Ġwide": 4124,
      "Ġinterpretation": 4125,
      "Ġrole": 4126,
      "Ġsimultane": 4127,
      "Ġ|=": 4128,
      "Ġ1000": 4129,
      "ĠFq": 4130,
      "ĠInter": 4131,
      "ĠAnnual": 4132,
      "Ġconsisting": 4133,
      "Ġradius": 4134,
      "Ġiff": 4135,
      "xy": 4136,
      "Ġstated": 4137,
      "Ġsn": 4138,
      "Ġsynchron": 4139,
      "Ġcoinc": 4140,
      "Ġcompletes": 4141,
      "Ġclearly": 4142,
      "ĠRo": 4143,
      "Ġsingular": 4144,
      "Ġaccuracy": 4145,
      "Ġ=âĩĴ": 4146,
      "Ġ(âĪĨ": 4147,
      "dis": 4148,
      "Ex": 4149,
      "Ġsin": 4150,
      "Ġprimitive": 4151,
      "Ġclosure": 4152,
      "Ġpropag": 4153,
      "2012": 4154,
      "ee": 4155,
      "Ġimproved": 4156,
      "Ġcompletely": 4157,
      "Ġessentially": 4158,
      "ĠFunction": 4159,
      "++": 4160,
      "Ġcenter": 4161,
      "Ġsemi": 4162,
      "ĠId": 4163,
      "Ġaccount": 4164,
      "Ġdefines": 4165,
      "Ġordered": 4166,
      "fi": 4167,
      "Ġedit": 4168,
      "ĠÏĳ": 4169,
      "Ġadmits": 4170,
      "clic": 4171,
      "Ġsaid": 4172,
      "Ġpatterns": 4173,
      "ĠSep": 4174,
      "ĠProper": 4175,
      "Ġï£°": 4176,
      "Ġcounter": 4177,
      "RS": 4178,
      "Ġ)-": 4179,
      "approximation": 4180,
      "ĠAccording": 4181,
      "Ġprinci": 4182,
      "ĠDepartment": 4183,
      "Ġdatab": 4184,
      "Ġsyntax": 4185,
      "gies": 4186,
      "active": 4187,
      "ĠReferences": 4188,
      "Ġshowing": 4189,
      "encies": 4190,
      "Ġexplicitly": 4191,
      "Ġreplace": 4192,
      "Ġ({": 4193,
      "Ġideal": 4194,
      "Ġconjecture": 4195,
      "AD": 4196,
      "ĠHi": 4197,
      "Ġusual": 4198,
      "ded": 4199,
      "ĠApplications": 4200,
      "eti": 4201,
      "ID": 4202,
      "Ġcub": 4203,
      "Ġadditive": 4204,
      "Ġproducts": 4205,
      "ĠEl": 4206,
      "Ġbias": 4207,
      "lli": 4208,
      "ÌĤ)": 4209,
      "Ġalphab": 4210,
      "Ġasymptotically": 4211,
      "ĠCommunications": 4212,
      "ĠâŁ": 4213,
      "Ġtranslation": 4214,
      "Ġreader": 4215,
      "Ġ)).": 4216,
      "LS": 4217,
      "potent": 4218,
      "ticle": 4219,
      "Ġelimin": 4220,
      "bounded": 4221,
      "Ġmeaning": 4222,
      "ĠDav": 4223,
      "Ġalgebras": 4224,
      "Ġsegment": 4225,
      "ĠâĪĨ(": 4226,
      "CF": 4227,
      "Ġlies": 4228,
      "Ġspati": 4229,
      "Ġautomatic": 4230,
      "ĠÎ»i": 4231,
      "Ġclassification": 4232,
      "gl": 4233,
      "ĠProcessing": 4234,
      "ucl": 4235,
      "Ġtext": 4236,
      "Ai": 4237,
      "Ġruntime": 4238,
      "ourse": 4239,
      "ception": 4240,
      "Ġcache": 4241,
      "Ġconfidence": 4242,
      "Ġcycles": 4243,
      "Ġdeduce": 4244,
      "Ġasp": 4245,
      "ĠConsequently": 4246,
      "HS": 4247,
      "no": 4248,
      "94": 4249,
      "Ġreconstr": 4250,
      "gu": 4251,
      "ING": 4252,
      "inde": 4253,
      "Ġkf": 4254,
      "âĪħ": 4255,
      "Ġdifficult": 4256,
      "use": 4257,
      "Ġagent": 4258,
      "Ġindependently": 4259,
      "Ġbranch": 4260,
      "etic": 4261,
      "connected": 4262,
      "Ġslightly": 4263,
      "Ġcurve": 4264,
      "Ġresid": 4265,
      "ĠdB": 4266,
      "80": 4267,
      "ĠRandom": 4268,
      "Ġplay": 4269,
      "optimal": 4270,
      "Ġproves": 4271,
      "Ġmember": 4272,
      "Ġqi": 4273,
      "ĠCG": 4274,
      "Ġgenerally": 4275,
      "On": 4276,
      "Ġstationary": 4277,
      "Ġchecking": 4278,
      "ĠZhang": 4279,
      "Ġmultiplication": 4280,
      "ensive": 4281,
      "Ġsituation": 4282,
      "Ġdevi": 4283,
      "Ġreduces": 4284,
      "ĠAv": 4285,
      "Ġmodul": 4286,
      "parametric": 4287,
      "uctions": 4288,
      "Ġsignificantly": 4289,
      "right": 4290,
      "Ġ42": 4291,
      "Ġanalyze": 4292,
      "algebra": 4293,
      "part": 4294,
      "Ġcomplement": 4295,
      "anner": 4296,
      "CE": 4297,
      "Ġhist": 4298,
      "Ġplace": 4299,
      "Ġtechnical": 4300,
      "ĠMi": 4301,
      "Ġdimensional": 4302,
      "Ġreplaced": 4303,
      "Ġcriterion": 4304,
      "Ġdiff": 4305,
      "Ġadaptive": 4306,
      "ĠHam": 4307,
      "Ġopp": 4308,
      "io": 4309,
      "Ġbott": 4310,
      "anc": 4311,
      "ĠFOR": 4312,
      "ĠSpecific": 4313,
      "Ġincludes": 4314,
      "Ġsuff": 4315,
      "Ġapplies": 4316,
      "ĠAlthough": 4317,
      "Ġsummar": 4318,
      "Ġlayer": 4319,
      "ĠBound": 4320,
      "Ġpolicy": 4321,
      "Ġlevels": 4322,
      "ror": 4323,
      "Ġcardinality": 4324,
      "IR": 4325,
      "Ġrelatively": 4326,
      "Ġcritical": 4327,
      "zation": 4328,
      "Ġbr": 4329,
      "Ti": 4330,
      "Ġevaluate": 4331,
      "opt": 4332,
      "Ġgeneralization": 4333,
      "Ġ45": 4334,
      "Ġmeasurements": 4335,
      "dist": 4336,
      "89": 4337,
      "Ġprof": 4338,
      "Ġwhole": 4339,
      "Al": 4340,
      "Ġinputs": 4341,
      "Ġaffine": 4342,
      "Ġwalk": 4343,
      "ifying": 4344,
      "Ġzi": 4345,
      "ociety": 4346,
      "Ġrandomized": 4347,
      "Ġclause": 4348,
      "âĬĹ": 4349,
      "uitive": 4350,
      "Ġ,...,": 4351,
      "ĠPhys": 4352,
      "Ġtools": 4353,
      "ĠÂ¯": 4354,
      "âĪĴâĨĴ": 4355,
      "Ġoutputs": 4356,
      "Ġresource": 4357,
      "ĠKn": 4358,
      "Ġ43": 4359,
      "]),": 4360,
      "Ġstatements": 4361,
      "class": 4362,
      "ĠLearning": 4363,
      "Ġelementary": 4364,
      "apter": 4365,
      "eck": 4366,
      "Ġusually": 4367,
      "Ġpenal": 4368,
      "ĠâĪ¶": 4369,
      "Ġ);": 4370,
      "ged": 4371,
      "Ġsimplicity": 4372,
      "itt": 4373,
      "ĠUE": 4374,
      "85": 4375,
      "ĠWi": 4376,
      "ini": 4377,
      "Ġgeneration": 4378,
      "Ġï£»": 4379,
      "Ġeffects": 4380,
      "FS": 4381,
      "Ġak": 4382,
      "aching": 4383,
      "space": 4384,
      "Ġrefin": 4385,
      "Ġarea": 4386,
      "ina": 4387,
      "la": 4388,
      "pec": 4389,
      "Ġidentical": 4390,
      "Ġbij": 4391,
      "valued": 4392,
      "current": 4393,
      "Ġgrammar": 4394,
      "Ġarc": 4395,
      "rant": 4396,
      "Ġcoefficient": 4397,
      "CT": 4398,
      "ÌĤ,": 4399,
      "weight": 4400,
      "Ġarchit": 4401,
      "orage": 4402,
      "ĠâĮĬ": 4403,
      "ipartite": 4404,
      "Ġinternal": 4405,
      "Ġagainst": 4406,
      "ĠAL": 4407,
      "Ġassuming": 4408,
      "ÌĢ": 4409,
      "isson": 4410,
      "assive": 4411,
      "ĠExt": 4412,
      "Ġshape": 4413,
      "Ġplanar": 4414,
      "Ġ2018": 4415,
      "ĠâĢĿ": 4416,
      "call": 4417,
      "pn": 4418,
      "ĠPP": 4419,
      "ĠâĬ¤": 4420,
      "Ġsequential": 4421,
      "Ġcombinatorial": 4422,
      "ĠDiscrete": 4423,
      "Ġcomputations": 4424,
      "Ġspectrum": 4425,
      "IL": 4426,
      "Ġcorrectness": 4427,
      "ĠTHE": 4428,
      "Ġorigin": 4429,
      "Ġmajor": 4430,
      "Ġcoverage": 4431,
      "fully": 4432,
      "ĠPX": 4433,
      "ĠCS": 4434,
      "Ġomit": 4435,
      "xiom": 4436,
      "Theorem": 4437,
      "Ġpx": 4438,
      "âĻ": 4439,
      "Ġdig": 4440,
      "Ġring": 4441,
      "complete": 4442,
      "ĠSociety": 4443,
      "Ġvariant": 4444,
      "Ġinduces": 4445,
      "Ġintroduc": 4446,
      "Ġbandwidth": 4447,
      ")))": 4448,
      "ucture": 4449,
      "Ġinstruction": 4450,
      "ĠXj": 4451,
      "ĠInf": 4452,
      "2011": 4453,
      "ĠÂ¬": 4454,
      "Si": 4455,
      "Ġmi": 4456,
      "Ġpolynomials": 4457,
      "ĠSpecifically": 4458,
      "da": 4459,
      "urb": 4460,
      "ĠWang": 4461,
      "Ìĥ)": 4462,
      "otstra": 4463,
      "Ġdimensions": 4464,
      "Ġeffective": 4465,
      "Ġproduce": 4466,
      "Ġremove": 4467,
      "Ġinclusion": 4468,
      "flow": 4469,
      "sen": 4470,
      "Ġlif": 4471,
      "Ġdependent": 4472,
      "Ġoverall": 4473,
      "ectivity": 4474,
      "ĠTime": 4475,
      "ĠTn": 4476,
      "Ġacross": 4477,
      "Ġvers": 4478,
      "Ġgradient": 4479,
      "ĠHu": 4480,
      "Ġfeed": 4481,
      "ĠEquation": 4482,
      "Ġ500": 4483,
      "sem": 4484,
      "Ġtend": 4485,
      "volution": 4486,
      "idean": 4487,
      "93": 4488,
      "Ġquite": 4489,
      "ĠBer": 4490,
      "Ġsket": 4491,
      "Ġpositions": 4492,
      "Xt": 4493,
      "Ġbecome": 4494,
      "Ð»": 4495,
      "ĠPe": 4496,
      "uclidean": 4497,
      "ĠXt": 4498,
      "isim": 4499,
      "Ġchoices": 4500,
      "Ġhar": 4501,
      "teness": 4502,
      "empor": 4503,
      "Ġenumer": 4504,
      "ĠÎŀ": 4505,
      "Ġrecover": 4506,
      "ĠMc": 4507,
      "roid": 4508,
      "Â¯": 4509,
      "86": 4510,
      "ĠHn": 4511,
      "ifications": 4512,
      "DM": 4513,
      "Ġorbit": 4514,
      "Ġstrings": 4515,
      "Ġcells": 4516,
      "Ġrepresenting": 4517,
      "ĠÃĳ": 4518,
      "Ġheur": 4519,
      "word": 4520,
      "Ġefficiently": 4521,
      "ĠSem": 4522,
      "ĠÂ·Â·Â·": 4523,
      "ĠSC": 4524,
      "olar": 4525,
      "Ġactual": 4526,
      "Ġ::=": 4527,
      "rect": 4528,
      "Ġ])": 4529,
      "Ġrelationsh": 4530,
      "Ġthough": 4531,
      "iti": 4532,
      "Ġiterative": 4533,
      "ĠCR": 4534,
      "87": 4535,
      "ĠGROU": 4536,
      "Ġextensions": 4537,
      "incip": 4538,
      "Ġpairwise": 4539,
      "Ġgeometry": 4540,
      "Ġsoftware": 4541,
      "2009": 4542,
      "Th": 4543,
      "Ġ2003": 4544,
      "Ġbuild": 4545,
      "Hz": 4546,
      "Ġcourse": 4547,
      "ĠApproxim": 4548,
      "ached": 4549,
      "Ġclique": 4550,
      "Ġverification": 4551,
      "Ġquantif": 4552,
      "link": 4553,
      "âĪª": 4554,
      "De": 4555,
      "Ġneighbors": 4556,
      "Ġearl": 4557,
      "ĠËĩ": 4558,
      "ĠMach": 4559,
      "Ġlimited": 4560,
      "Ġphys": 4561,
      "Ġpj": 4562,
      "Ġcoordinates": 4563,
      "Ġtraining": 4564,
      "Ġfaster": 4565,
      "Ġmode": 4566,
      "ĠPk": 4567,
      "ris": 4568,
      "Ġplac": 4569,
      "chitz": 4570,
      "Ġlabeled": 4571,
      "Ġincident": 4572,
      "ĠSIAM": 4573,
      "Ġscheduling": 4574,
      "Ġinvari": 4575,
      "Ġgrid": 4576,
      "];": 4577,
      "GL": 4578,
      "2010": 4579,
      "ĠTwo": 4580,
      "ĠMn": 4581,
      "ĠðĿĲ": 4582,
      "ĠCP": 4583,
      "Ġnever": 4584,
      "ĠCol": 4585,
      "ĠZi": 4586,
      "Ġachievable": 4587,
      "(âĪĨ": 4588,
      "Ġtransformations": 4589,
      "Ġwidth": 4590,
      "Ġrespon": 4591,
      "Ġcircu": 4592,
      "DD": 4593,
      "Ġcreate": 4594,
      "Ġmodified": 4595,
      "ĠCA": 4596,
      "Ġmarginal": 4597,
      "ta": 4598,
      "Ġabstraction": 4599,
      "Ġâīº": 4600,
      "Ġindependence": 4601,
      "ĠHom": 4602,
      "Ġvj": 4603,
      "Ġestablished": 4604,
      "Ġcoordinate": 4605,
      "anging": 4606,
      "ĠNotes": 4607,
      "ĠĄ": 4608,
      "Ġallowed": 4609,
      "indow": 4610,
      "ĠSignal": 4611,
      "utive": 4612,
      "101": 4613,
      "step": 4614,
      "Ġrational": 4615,
      "Ġ2002": 4616,
      "Ġfunct": 4617,
      "cript": 4618,
      "Ġtn": 4619,
      "Ġmaking": 4620,
      "ogn": 4621,
      "92": 4622,
      "Ġmonoton": 4623,
      "Ġinterested": 4624,
      "RI": 4625,
      "ĠAT": 4626,
      "Ġconcrete": 4627,
      "oretic": 4628,
      "Ġ80": 4629,
      "Ġpseudo": 4630,
      "Ġconjugacy": 4631,
      "ÌĦ)": 4632,
      "Ġaux": 4633,
      "greg": 4634,
      "Ġrelay": 4635,
      "Ġstrategies": 4636,
      "ĠBar": 4637,
      "2017": 4638,
      "jk": 4639,
      "ipschitz": 4640,
      "urally": 4641,
      "Ġsound": 4642,
      "Lem": 4643,
      "Ġcovering": 4644,
      "Ġsubsection": 4645,
      "Ġ|.": 4646,
      "Ġcontract": 4647,
      "ourier": 4648,
      "sue": 4649,
      "Ġstatistic": 4650,
      "Ġbig": 4651,
      "ĠOptim": 4652,
      "words": 4653,
      "Ġang": 4654,
      "nas": 4655,
      "iform": 4656,
      "Ġlocations": 4657,
      "ean": 4658,
      "Ġ2001": 4659,
      "rarily": 4660,
      "Ġsparsity": 4661,
      "Ġpick": 4662,
      "olding": 4663,
      "Ġtyping": 4664,
      "Ġinfin": 4665,
      "]:": 4666,
      "ĠCL": 4667,
      "Ġcandidate": 4668,
      "vation": 4669,
      "Ġparent": 4670,
      "ĠPre": 4671,
      "Ġensures": 4672,
      "shop": 4673,
      "Ġsplitting": 4674,
      "ĠGre": 4675,
      "ses": 4676,
      "Ġshared": 4677,
      "otop": 4678,
      "Ġmeasurement": 4679,
      "Ġtrade": 4680,
      "change": 4681,
      "ĠRE": 4682,
      "Ġrandomly": 4683,
      "âĮĭ": 4684,
      "Ġouter": 4685,
      "Ġimplicit": 4686,
      "We": 4687,
      "Ġemploy": 4688,
      "Ġproportion": 4689,
      "rate": 4690,
      "math": 4691,
      "Ġtransitive": 4692,
      "cepts": 4693,
      "omet": 4694,
      "Ġstored": 4695,
      "ĠâĬ²": 4696,
      "Ġprocedures": 4697,
      "ĠEngineering": 4698,
      "Ġauthor": 4699,
      "âĿ": 4700,
      "Ġestimating": 4701,
      "esting": 4702,
      "Ġentire": 4703,
      "Ġ+âĪŀ": 4704,
      "âĹıâĹıâĹıâĹıâĹıâĹıâĹıâĹı": 4705,
      "Ġconjugate": 4706,
      "ĠON": 4707,
      "Ġnormalized": 4708,
      "Ġkx": 4709,
      "ended": 4710,
      "Yi": 4711,
      "ĠDS": 4712,
      "ĠAnnals": 4713,
      "ĠâĻ": 4714,
      "Ġyield": 4715,
      "acking": 4716,
      "Ġexponent": 4717,
      "Ġdataset": 4718,
      "Ġvariety": 4719,
      "Ġvariation": 4720,
      "cont": 4721,
      "Ġswit": 4722,
      "ithmetic": 4723,
      "Ġcompati": 4724,
      "ung": 4725,
      "RL": 4726,
      "Ġgenerator": 4727,
      "ĠAnother": 4728,
      "cast": 4729,
      "cut": 4730,
      "Ġ[âĪĴ": 4731,
      "heses": 4732,
      "Ġexperiment": 4733,
      "Ġ]]": 4734,
      "incipal": 4735,
      "Ġprivacy": 4736,
      "Ġ[(": 4737,
      "groups": 4738,
      "Ġalphabet": 4739,
      "Ġstage": 4740,
      "zi": 4741,
      "Ġpreviously": 4742,
      "Ġreplacing": 4743,
      "ĠMA": 4744,
      "Ġspatial": 4745,
      "CTION": 4746,
      "acts": 4747,
      "Ġrn": 4748,
      "ugment": 4749,
      "84": 4750,
      "Ġarbitrarily": 4751,
      "Ġlinks": 4752,
      "Ġcopy": 4753,
      "brid": 4754,
      "Ġdifferenti": 4755,
      "vey": 4756,
      "ument": 4757,
      "Ġdistinguish": 4758,
      "Ġsurface": 4759,
      "Ġexpress": 4760,
      "itz": 4761,
      "ĠPoisson": 4762,
      "Ġcomes": 4763,
      "Ġapplic": 4764,
      "anged": 4765,
      "otstrap": 4766,
      "Ġremoved": 4767,
      "Ġown": 4768,
      "Ġstorage": 4769,
      "istics": 4770,
      "Ġ^": 4771,
      "Ġprivate": 4772,
      "Ġbroad": 4773,
      "Ġannot": 4774,
      "BM": 4775,
      "ĠLo": 4776,
      "Ġeigenvalue": 4777,
      "Ġcomputer": 4778,
      "ĠâĩĲ": 4779,
      "ford": 4780,
      "Ġconvention": 4781,
      "Ġequals": 4782,
      "Ġbipartite": 4783,
      "Ġreview": 4784,
      "regular": 4785,
      "ĠCN": 4786,
      "ĠâĨĵ": 4787,
      "ributed": 4788,
      "Ġcomputes": 4789,
      "value": 4790,
      "91": 4791,
      "rob": 4792,
      "Ġfit": 4793,
      "Ġgrowth": 4794,
      "Ġhn": 4795,
      "ĠCho": 4796,
      "Ġpacket": 4797,
      "Ġvar": 4798,
      "Ġachieves": 4799,
      "|.": 4800,
      "Ġcopies": 4801,
      "Ġforward": 4802,
      "ĠkX": 4803,
      "ĠSIG": 4804,
      "Ġbody": 4805,
      "Ġ|,": 4806,
      "come": 4807,
      "Ġlogarithm": 4808,
      "Ġfn": 4809,
      "Ġhandle": 4810,
      "Ġcn": 4811,
      "Ġcorrel": 4812,
      "ĠÖ": 4813,
      "Ġheap": 4814,
      "Ġul": 4815,
      "ilbert": 4816,
      "ĠZn": 4817,
      "Lemma": 4818,
      "iding": 4819,
      "iliary": 4820,
      "Ġextreme": 4821,
      "aton": 4822,
      "erlag": 4823,
      "enable": 4824,
      "ÌĦ,": 4825,
      "Ġgame": 4826,
      "ination": 4827,
      "âĪ©": 4828,
      "Ġtypically": 4829,
      "ĠOct": 4830,
      "Ġcompletion": 4831,
      "Ġearlier": 4832,
      "Ġsettings": 4833,
      "Ġlearn": 4834,
      "CG": 4835,
      "Ġwave": 4836,
      "sist": 4837,
      "Ġred": 4838,
      "Ġbuilt": 4839,
      "ĠMay": 4840,
      "www": 4841,
      "ĠForm": 4842,
      "Ġagents": 4843,
      "mediate": 4844,
      "ĠâĪħ.": 4845,
      "ÌĦ(": 4846,
      "ĠYu": 4847,
      "Ġstructural": 4848,
      "ĠProbability": 4849,
      "Ġbuilding": 4850,
      "Ġxt": 4851,
      "Ġ(Â·)": 4852,
      "Ġord": 4853,
      "Ìĥ,": 4854,
      "Sn": 4855,
      "Ġhyperpl": 4856,
      "rd": 4857,
      "Ġnilpotent": 4858,
      "plac": 4859,
      "Fn": 4860,
      "ults": 4861,
      "Ġdistances": 4862,
      "Ġpresence": 4863,
      "Ġreasoning": 4864,
      "tor": 4865,
      "mn": 4866,
      "Ġlists": 4867,
      "ĠHo": 4868,
      "ĠFourier": 4869,
      "Ġexpand": 4870,
      "Ġpurpose": 4871,
      "Ġcalculus": 4872,
      "sim": 4873,
      "Ġinflu": 4874,
      "zing": 4875,
      "forming": 4876,
      "Ġaj": 4877,
      "ï¿½ï¿½ï¿½ï¿½": 4878,
      "OMA": 4879,
      "Ìº": 4880,
      "Ġrepeated": 4881,
      "Ġaxiom": 4882,
      "2008": 4883,
      "Ġbehaviour": 4884,
      "ĠInstit": 4885,
      "Ch": 4886,
      "ĠLanguages": 4887,
      "Ġbelie": 4888,
      "ĠEuclidean": 4889,
      "Ġupdates": 4890,
      "Ġfeedback": 4891,
      "ĠEvery": 4892,
      "âŁ": 4893,
      "ĠCombining": 4894,
      "Ġviol": 4895,
      "Ġâİ": 4896,
      "ĠAR": 4897,
      "Ġvary": 4898,
      "Ġ44": 4899,
      "Ġextends": 4900,
      "Ġcurves": 4901,
      "Ġidentified": 4902,
      "ĠBob": 4903,
      "ĠAlice": 4904,
      "ĠPL": 4905,
      "ump": 4906,
      "abor": 4907,
      "ĠHas": 4908,
      "Ġrounds": 4909,
      "Ġmonotone": 4910,
      "Ġkind": 4911,
      "Ġpossibly": 4912,
      "Ġtermination": 4913,
      "ĠFi": 4914,
      "ðĿĲ": 4915,
      "ka": 4916,
      "ĠEX": 4917,
      "Ġcollect": 4918,
      "ev": 4919,
      ",...,": 4920,
      "nn": 4921,
      "edge": 4922,
      "Ġextra": 4923,
      "Ġax": 4924,
      "ĠCox": 4925,
      "Ġminimax": 4926,
      "tible": 4927,
      "Ġregions": 4928,
      "vity": 4929,
      "DE": 4930,
      "ĠïĢ½": 4931,
      "Ġchallen": 4932,
      "Ġds": 4933,
      "Ġformulation": 4934,
      "deg": 4935,
      "ilies": 4936,
      "Ġprediction": 4937,
      "tition": 4938,
      "ĠTyp": 4939,
      "ĠRed": 4940,
      "Ġhor": 4941,
      "Î¹": 4942,
      "ĠâĪħ,": 4943,
      "Ġcapture": 4944,
      "Ð¼": 4945,
      "ortun": 4946,
      "Ġconcern": 4947,
      "Ġtasks": 4948,
      "Ġtransp": 4949,
      "ressive": 4950,
      "Ġsimulations": 4951,
      "Ġchoosing": 4952,
      "Ġdevelopment": 4953,
      "ifies": 4954,
      "Ġij": 4955,
      "ĠTop": 4956,
      "bs": 4957,
      "obile": 4958,
      "ĠÅ": 4959,
      "ĠRk": 4960,
      "ĠOper": 4961,
      "ifferen": 4962,
      "83": 4963,
      "ĠConstr": 4964,
      "Ġdifferential": 4965,
      "Ġcare": 4966,
      "Ġissue": 4967,
      "Ġtypical": 4968,
      "Ġaugment": 4969,
      "__": 4970,
      "ublic": 4971,
      "Ġperforms": 4972,
      "Ġpreprint": 4973,
      "Ġnk": 4974,
      "ĠSol": 4975,
      "Ġyet": 4976,
      "Ġheight": 4977,
      "abell": 4978,
      "Ġprecision": 4979,
      "ĠDn": 4980,
      "Ġdetailed": 4981,
      "ĠAdv": 4982,
      "osite": 4983,
      "Ġrecently": 4984,
      "yk": 4985,
      "times": 4986,
      "Ġqueue": 4987,
      "Ġdrawn": 4988,
      "Ġlay": 4989,
      "ĠInform": 4990,
      "ĠLN": 4991,
      "ĠRO": 4992,
      "Ġindicates": 4993,
      "UR": 4994,
      "arp": 4995,
      "ĠBr": 4996,
      "81": 4997,
      "Ġsecurity": 4998,
      "|,": 4999,
      "Ġ/(": 5000,
      "ĠLinear": 5001,
      "idden": 5002,
      "cher": 5003,
      "Ġnames": 5004,
      "asure": 5005,
      "Xn": 5006,
      "ories": 5007,
      "Ġetc": 5008,
      "ĠGeneral": 5009,
      "ĠBl": 5010,
      "Ġways": 5011,
      "ĠML": 5012,
      "ĠES": 5013,
      "Ġthroughput": 5014,
      "mmetric": 5015,
      "Ġnois": 5016,
      "ectors": 5017,
      "Ġintroduction": 5018,
      "Ġdecreasing": 5019,
      "ĠIS": 5020,
      "ĠRp": 5021,
      "Ġscenarios": 5022,
      "god": 5023,
      "Ġcorollary": 5024,
      "Ġcharacterization": 5025,
      "tract": 5026,
      "Ġbene": 5027,
      "Ġatten": 5028,
      "Ġvs": 5029,
      "Ġarithmetic": 5030,
      "Ġcompression": 5031,
      "Ġproject": 5032,
      "rays": 5033,
      "rn": 5034,
      "Ġrect": 5035,
      "âĪĴ(": 5036,
      "parse": 5037,
      "Ġpage": 5038,
      "rief": 5039,
      "Ġpt": 5040,
      "amp": 5041,
      "ÌĨ": 5042,
      "Ġadvantage": 5043,
      "Ġprinciple": 5044,
      "ĠNumber": 5045,
      "Ġhead": 5046,
      "==": 5047,
      "Ġhttps": 5048,
      "Ġcontroll": 5049,
      "PP": 5050,
      "Ġautomorphisms": 5051,
      "Ġdesigned": 5052,
      "Ġantenna": 5053,
      "ĠProp": 5054,
      "ĠLecture": 5055,
      "Ġmachines": 5056,
      "ĠAN": 5057,
      "size": 5058,
      "ĠâĭĬ": 5059,
      "Ġcontent": 5060,
      "llip": 5061,
      "eff": 5062,
      "load": 5063,
      "ĠAny": 5064,
      "ĠðĿľ": 5065,
      "Ġillustrate": 5066,
      "Ġ1999": 5067,
      "Ġupon": 5068,
      "Ġsoc": 5069,
      "Ġsolvable": 5070,
      "orth": 5071,
      "ĠRob": 5072,
      "Ġserver": 5073,
      "sm": 5074,
      "Ġhis": 5075,
      "Ġdouble": 5076,
      "Ġquality": 5077,
      "Ġlibrary": 5078,
      "Ġadvers": 5079,
      "Ġ1998": 5080,
      "Ġformulas": 5081,
      ")/(": 5082,
      "82": 5083,
      "uv": 5084,
      "ĠâĪ£": 5085,
      "ĠStein": 5086,
      "norm": 5087,
      "Ġmultivariate": 5088,
      "ica": 5089,
      "Ġsimultaneously": 5090,
      "book": 5091,
      "Ġdivergence": 5092,
      "Ġintermediate": 5093,
      "Ġexecuted": 5094,
      "Ġhome": 5095,
      "uj": 5096,
      "Ġregis": 5097,
      "Ġrk": 5098,
      "ĠOPT": 5099,
      "Ġ)),": 5100,
      "Ġlie": 5101,
      "iable": 5102,
      ",(": 5103,
      "Ġscaling": 5104,
      "ĠâĬĶ": 5105,
      "Ġconclud": 5106,
      "Ġinfer": 5107,
      "ĠIm": 5108,
      "turb": 5109,
      "Ġtheorems": 5110,
      "Ġextract": 5111,
      "ĠConf": 5112,
      "Ġpopulation": 5113,
      "erman": 5114,
      "Ġevaluated": 5115,
      "Ġstudies": 5116,
      "Ġembedded": 5117,
      "ĠCr": 5118,
      "Ġdatabase": 5119,
      "Ġ)+": 5120,
      "normal": 5121,
      "Ġnonzero": 5122,
      "ĠHar": 5123,
      "Ġquantity": 5124,
      "Ġpartitions": 5125,
      "sitivity": 5126,
      "Ġauxiliary": 5127,
      "Ġturns": 5128,
      "ternal": 5129,
      "Ġalign": 5130,
      "...": 5131,
      "2007": 5132,
      "Ġinjective": 5133,
      "ĠNG": 5134,
      "Ġwho": 5135,
      "user": 5136,
      "ĠUi": 5137,
      "Ġpopular": 5138,
      "Ġgenerates": 5139,
      "Ġbottom": 5140,
      "bl": 5141,
      "Ġincor": 5142,
      "Ġdemonstrate": 5143,
      "Ġsubtree": 5144,
      "ital": 5145,
      "ĠLL": 5146,
      "ĠBased": 5147,
      "Ġparameterized": 5148,
      "ĠâĦ": 5149,
      "auses": 5150,
      "Ġrectang": 5151,
      "duct": 5152,
      "Ġfamilies": 5153,
      "ampling": 5154,
      "NG": 5155,
      "Ġcruc": 5156,
      "Ġrequirement": 5157,
      "Pn": 5158,
      "erlin": 5159,
      "ĠElect": 5160,
      "ery": 5161,
      "ĠChe": 5162,
      "ĠWorkshop": 5163,
      "Ġinsp": 5164,
      "ĠApplying": 5165,
      "lexity": 5166,
      "vially": 5167,
      "Ġbj": 5168,
      "Ġexception": 5169,
      "adic": 5170,
      "atter": 5171,
      "umul": 5172,
      "Ġoverhead": 5173,
      "tific": 5174,
      "Ġimmediate": 5175,
      "Le": 5176,
      "ois": 5177,
      "Ġreferences": 5178,
      "Ġinvolved": 5179,
      "ĠâĬĳ": 5180,
      "Ġdivis": 5181,
      "ĠAgain": 5182,
      "Ġattack": 5183,
      "Ġmanner": 5184,
      "Ġvn": 5185,
      "Ġcountable": 5186,
      ")âĪĪ": 5187,
      "Ġsuffix": 5188,
      "Ġxs": 5189,
      "Ġlight": 5190,
      "herent": 5191,
      "Ġleading": 5192,
      "ĠMS": 5193,
      "scale": 5194,
      "Ġ47": 5195,
      "Ġflat": 5196,
      "ĠSE": 5197,
      "Ġbootstrap": 5198,
      "Sp": 5199,
      "Ġnaturally": 5200,
      "ĠMich": 5201,
      "TE": 5202,
      "Ñĥ": 5203,
      "Ġloops": 5204,
      "Ġcoc": 5205,
      "ĠBoth": 5206,
      "ĠSing": 5207,
      "ĠVari": 5208,
      "ĠGROUPS": 5209,
      "ĠPart": 5210,
      "wi": 5211,
      "ĠPubl": 5212,
      "Ġ49": 5213,
      "ening": 5214,
      "ession": 5215,
      "ĠEM": 5216,
      "Ġcommunications": 5217,
      "âľ": 5218,
      "nk": 5219,
      "ĠTe": 5220,
      "Ġrecursion": 5221,
      "Ġanalogous": 5222,
      "icative": 5223,
      "Ġdeclar": 5224,
      "Ġcellular": 5225,
      "ĠGr": 5226,
      "Ġtriple": 5227,
      "ĠÄĽ": 5228,
      "Ġantennas": 5229,
      "Ġvk": 5230,
      "Ġminimization": 5231,
      "Ġsen": 5232,
      "Ġdegrees": 5233,
      "Ġrooted": 5234,
      "ending": 5235,
      "Ġothers": 5236,
      "ĠBu": 5237,
      "Ġfading": 5238,
      "Ġderivative": 5239,
      "Ġproduces": 5240,
      "ĠPT": 5241,
      "Ġker": 5242,
      "Ġalthough": 5243,
      "Ġske": 5244,
      "Ġprincipal": 5245,
      "Ġretrie": 5246,
      "ĠÎ»k": 5247,
      "Ġbk": 5248,
      "Ġsignature": 5249,
      "Ġbreak": 5250,
      "Ġxy": 5251,
      "Ġ55": 5252,
      "Ġincluded": 5253,
      "izon": 5254,
      "Verlag": 5255,
      "ĠBas": 5256,
      "ĠThrough": 5257,
      "Ġgreedy": 5258,
      "Ġtuple": 5259,
      "Ġshift": 5260,
      "ditional": 5261,
      "2006": 5262,
      "etitive": 5263,
      "Ġsent": 5264,
      "Ġinvestigate": 5265,
      "rand": 5266,
      "reng": 5267,
      "avy": 5268,
      "ĠTheorems": 5269,
      "ĠNi": 5270,
      "Ġimprovement": 5271,
      "xj": 5272,
      "Ġregime": 5273,
      "ln": 5274,
      "Ġpartially": 5275,
      "ĠPO": 5276,
      "cd": 5277,
      "play": 5278,
      "Ġtorsion": 5279,
      "Ġlemmas": 5280,
      "zy": 5281,
      "ĠAss": 5282,
      "Ġsubmodular": 5283,
      "arse": 5284,
      "Ġformally": 5285,
      "Ġframe": 5286,
      "Ġbrief": 5287,
      "Ġseparate": 5288,
      "Ġroots": 5289,
      "Ġdri": 5290,
      "Ġundirected": 5291,
      "ĠFran": 5292,
      "qq": 5293,
      "ensity": 5294,
      "Ġcombining": 5295,
      "Ġresidual": 5296,
      "ĠRF": 5297,
      "Ġorgan": 5298,
      "prob": 5299,
      "Ġjobs": 5300,
      "ĠDavid": 5301,
      "Ġ46": 5302,
      "Ġincrement": 5303,
      "ĠFollow": 5304,
      "BC": 5305,
      "Ġaggreg": 5306,
      "vector": 5307,
      "Ġplot": 5308,
      "Ġcharacters": 5309,
      "ĠMachine": 5310,
      "ek": 5311,
      "Ġoutside": 5312,
      "verag": 5313,
      "atist": 5314,
      "Ġcreated": 5315,
      "uning": 5316,
      "ĠSum": 5317,
      "Ġ52": 5318,
      "ĠProperty": 5319,
      "hl": 5320,
      "Ġexam": 5321,
      "Ġinstructions": 5322,
      "Ġprog": 5323,
      "ĠBerlin": 5324,
      "Ġsymmetry": 5325,
      "dle": 5326,
      "ĠRA": 5327,
      "Ġgn": 5328,
      "Ġadv": 5329,
      "Ġâīĥ": 5330,
      "Ġimages": 5331,
      "US": 5332,
      "Ġki": 5333,
      "rol": 5334,
      "ĠIr": 5335,
      "faces": 5336,
      "ĠWireless": 5337,
      "Ġapproximately": 5338,
      "Ġcombined": 5339,
      "Ġseparation": 5340,
      "att": 5341,
      "Ġnontrivial": 5342,
      "Ġ|)": 5343,
      "Ġlonger": 5344,
      "Ġmedian": 5345,
      "Ġwindow": 5346,
      "Bi": 5347,
      "ĠStatist": 5348,
      "ancy": 5349,
      "Ġdecreases": 5350,
      "ites": 5351,
      "ĠDo": 5352,
      "Ġtreatment": 5353,
      "Ġservice": 5354,
      "ĠHilbert": 5355,
      "Ġtransfer": 5356,
      "ĠFl": 5357,
      "Ġdynam": 5358,
      "ious": 5359,
      "ĠRad": 5360,
      "Ġfigure": 5361,
      "ky": 5362,
      "orel": 5363,
      "Ġtowards": 5364,
      "Ġsampled": 5365,
      "ĠInstitute": 5366,
      "Ġconcentration": 5367,
      "ĠSeries": 5368,
      "Ġ(`": 5369,
      "As": 5370,
      "ĠEi": 5371,
      "Ġdomains": 5372,
      "Ġseems": 5373,
      "yl": 5374,
      "ĠMor": 5375,
      "ĠWithout": 5376,
      "Ġminimize": 5377,
      "ĠSto": 5378,
      "tu": 5379,
      "Ġconcurrent": 5380,
      "Ġhypotheses": 5381,
      "Ġcalculate": 5382,
      "ĠKey": 5383,
      "net": 5384,
      "ĠPRO": 5385,
      "Ġimpact": 5386,
      "ĠNS": 5387,
      "ĠRm": 5388,
      "Ġideas": 5389,
      "Ġstarts": 5390,
      "Un": 5391,
      "Ġ51": 5392,
      "ĠProlog": 5393,
      "Ġmixed": 5394,
      "ĠCF": 5395,
      "Ġyk": 5396,
      "Ġthreads": 5397,
      "Ġbeginning": 5398,
      "Ġdescribes": 5399,
      "Ġfailure": 5400,
      "length": 5401,
      "rem": 5402,
      "**": 5403,
      "|)": 5404,
      "ï¬Ģ": 5405,
      "Ġnovel": 5406,
      "Ġrequirements": 5407,
      "RF": 5408,
      "ĠJu": 5409,
      "ĠLS": 5410,
      "ried": 5411,
      "ĠComputational": 5412,
      "ĠâĪĨ,": 5413,
      "mi": 5414,
      "sl": 5415,
      "Ġstronger": 5416,
      "ĠAndre": 5417,
      "Ġunits": 5418,
      "ĠBoolean": 5419,
      "Ġpropagation": 5420,
      "called": 5421,
      "pos": 5422,
      "ĠSM": 5423,
      "Ġsensing": 5424,
      "Ġej": 5425,
      "iring": 5426,
      "GR": 5427,
      "ground": 5428,
      "ecutive": 5429,
      "Ġarcs": 5430,
      "Ġmeasurable": 5431,
      "Ġresponse": 5432,
      "aten": 5433,
      "Ġacting": 5434,
      "ĠAug": 5435,
      "Ġforest": 5436,
      "ĠBen": 5437,
      "Ci": 5438,
      "Ġ'": 5439,
      "Ġalgorithmic": 5440,
      "Ġterminal": 5441,
      "Ġreflection": 5442,
      "Ġconfigurations": 5443,
      "Ġversions": 5444,
      "Ġspanning": 5445,
      "Ġimplementations": 5446,
      "Ġclauses": 5447,
      "Ġuncertain": 5448,
      "OF": 5449,
      "Ġ})": 5450,
      "Ġdeï¬ģn": 5451,
      "ĠÎ¸i": 5452,
      "Ġinfinity": 5453,
      "ĠSa": 5454,
      "Ġrad": 5455,
      "ĠkF": 5456,
      "Ġspan": 5457,
      "Ġith": 5458,
      "ĠCoxeter": 5459,
      "VM": 5460,
      "ĠGo": 5461,
      "Ġmodules": 5462,
      "Ġhx": 5463,
      "inary": 5464,
      "sities": 5465,
      "Ġjud": 5466,
      "Ġlg": 5467,
      "Ġpredicates": 5468,
      "Ġcounting": 5469,
      "ĠEu": 5470,
      "Ġface": 5471,
      "Cl": 5472,
      "iability": 5473,
      "Ġgoes": 5474,
      "Ġ54": 5475,
      "Ġdest": 5476,
      "Ġinterface": 5477,
      "trees": 5478,
      "Ġfails": 5479,
      "Ġask": 5480,
      "ĠAutom": 5481,
      "SION": 5482,
      "Ġparametric": 5483,
      "Ġâĩĵ": 5484,
      "Ġrefinement": 5485,
      "OT": 5486,
      "Ġcosts": 5487,
      "ĠFact": 5488,
      "Ġshare": 5489,
      "ĠMaxim": 5490,
      "Ġnor": 5491,
      "âĪĴâĪĴâĪĴâĪĴ": 5492,
      "Ġslot": 5493,
      "Ġtransitions": 5494,
      "Ġendpoints": 5495,
      "processing": 5496,
      "Ġmodeling": 5497,
      "ĠAS": 5498,
      "ĠEP": 5499,
      "alculation": 5500,
      "ĠET": 5501,
      "Ġarticle": 5502,
      "Ġmid": 5503,
      "iction": 5504,
      "Ġsafe": 5505,
      "Ġinteraction": 5506,
      "Î±i": 5507,
      "ĠAD": 5508,
      "Ġcohom": 5509,
      "ĠTR": 5510,
      "fit": 5511,
      "ĠTechnology": 5512,
      "Ġpublic": 5513,
      "Ġmarked": 5514,
      "down": 5515,
      "Ġrewrite": 5516,
      "ĠÂµi": 5517,
      "ĠFD": 5518,
      "tures": 5519,
      "Ġcaching": 5520,
      "Ġfair": 5521,
      "ĠGl": 5522,
      "Ġresolution": 5523,
      "IX": 5524,
      "uitively": 5525,
      "term": 5526,
      "OV": 5527,
      "ĠMP": 5528,
      "agement": 5529,
      "Ġplane": 5530,
      "perform": 5531,
      "pk": 5532,
      "ipped": 5533,
      "Ġredu": 5534,
      "yper": 5535,
      "dt": 5536,
      "ĠPA": 5537,
      "Ð´": 5538,
      "Ġep": 5539,
      "Ġrelationship": 5540,
      "els": 5541,
      "Ġmathematical": 5542,
      "Ġign": 5543,
      "ĠDue": 5544,
      "kell": 5545,
      "convex": 5546,
      "doi": 5547,
      "ĠMonte": 5548,
      "Ġinstanti": 5549,
      "ĠFoundations": 5550,
      "Ġdeli": 5551,
      "ĠâĩĶ": 5552,
      "tra": 5553,
      "Ġnotice": 5554,
      "alculus": 5555,
      "Ġproven": 5556,
      "Ġchildren": 5557,
      "ocation": 5558,
      "rice": 5559,
      "ican": 5560,
      "ĠÎ±n": 5561,
      "ishing": 5562,
      "ĠBefore": 5563,
      "ĠXk": 5564,
      "arest": 5565,
      "Ġpm": 5566,
      "ĠSA": 5567,
      "Ġconsecutive": 5568,
      "CR": 5569,
      "âĪĢ": 5570,
      "ĠResults": 5571,
      "Ġsections": 5572,
      "ba": 5573,
      "ĠMax": 5574,
      "hest": 5575,
      "Ġvirtual": 5576,
      "Ġ62": 5577,
      "ĠMart": 5578,
      "ĠGal": 5579,
      "Ġevolution": 5580,
      "({": 5581,
      "Ġellip": 5582,
      "Ġsquares": 5583,
      "that": 5584,
      "Ġequivalently": 5585,
      "Ġneighbour": 5586,
      "ĠWr": 5587,
      "ĠInput": 5588,
      "Ġiniti": 5589,
      "section": 5590,
      "Ġjoin": 5591,
      "ĠÎ±k": 5592,
      "âĢĻ,": 5593,
      "ĠVI": 5594,
      "ĠInstead": 5595,
      "MSE": 5596,
      "ĠIC": 5597,
      "Ġreve": 5598,
      "Ġgreat": 5599,
      "ĠCk": 5600,
      "ĠBorel": 5601,
      "Ġessential": 5602,
      "Ġattention": 5603,
      "iers": 5604,
      "Ġlinearly": 5605,
      "ĠËľ": 5606,
      ")!": 5607,
      "emann": 5608,
      "Ġii": 5609,
      "Ġredund": 5610,
      "Ġamenable": 5611,
      "Ġmoments": 5612,
      "ken": 5613,
      "Ġprojective": 5614,
      "godic": 5615,
      "ĠList": 5616,
      "Ġmixture": 5617,
      "ENT": 5618,
      "Ġrecord": 5619,
      "Ġsimpler": 5620,
      "Ġmagn": 5621,
      "Ġweakly": 5622,
      "Ġcrucial": 5623,
      "ĠSoftware": 5624,
      "Ġissu": 5625,
      "Ġrecogn": 5626,
      "Ġtempor": 5627,
      "ĠApplied": 5628,
      "ca": 5629,
      "oulli": 5630,
      "dB": 5631,
      "Ġcone": 5632,
      "Ġ1997": 5633,
      "ĠfËĨ": 5634,
      "ĠPM": 5635,
      "Ġdate": 5636,
      "ĠSw": 5637,
      "Ġarrays": 5638,
      "[(": 5639,
      "ael": 5640,
      "ĠÎ¥": 5641,
      "oud": 5642,
      "Ġ90": 5643,
      "Ġdepic": 5644,
      "ĠDesign": 5645,
      "Ġmutual": 5646,
      "Ġguaranteed": 5647,
      "Ġexplained": 5648,
      "Ġ57": 5649,
      "Ġstreng": 5650,
      "Ġ==": 5651,
      "Ġ53": 5652,
      "Ġpresents": 5653,
      "Ġhybrid": 5654,
      "ĠDet": 5655,
      "Ġpreserves": 5656,
      "Ġcoloring": 5657,
      "Ġinvolves": 5658,
      "aling": 5659,
      "ĠOver": 5660,
      "Ġfollowed": 5661,
      "Ġhappens": 5662,
      "Ġoptimality": 5663,
      "Ġbra": 5664,
      "Proof": 5665,
      "lexi": 5666,
      "Ġunf": 5667,
      "Ġck": 5668,
      "Ġunless": 5669,
      "Ġviewed": 5670,
      "Ġperturb": 5671,
      "Ġarchitecture": 5672,
      "ĠComputation": 5673,
      "Ġgra": 5674,
      "Ġstability": 5675,
      "Ġded": 5676,
      "Xj": 5677,
      "ĠXX": 5678,
      "Ġfunctor": 5679,
      "Ġconverse": 5680,
      "ustif": 5681,
      "pol": 5682,
      "reser": 5683,
      "][": 5684,
      "ĠÏĢi": 5685,
      "Ġcalculation": 5686,
      "ilities": 5687,
      "âĮī": 5688,
      "Ġhad": 5689,
      "tk": 5690,
      "Ġtk": 5691,
      "Ġattrib": 5692,
      "Ġfractional": 5693,
      "Ġreferred": 5694,
      "pecially": 5695,
      "UM": 5696,
      "Ġmanifold": 5697,
      "Ġmn": 5698,
      "ĠEcon": 5699,
      "Ġbijection": 5700,
      "Ġtransmitter": 5701,
      "ĠCON": 5702,
      "ĠLemmas": 5703,
      "Ġwa": 5704,
      "ĠâĮĪ": 5705,
      "ĠFeb": 5706,
      "ï£¸": 5707,
      "En": 5708,
      "ham": 5709,
      "Ġuk": 5710,
      "Ġdynamics": 5711,
      "Ġmul": 5712,
      "Ġinvariants": 5713,
      "ĠFollowing": 5714,
      "Ġlimits": 5715,
      "ym": 5716,
      "ulty": 5717,
      "Ġď)": 5718,
      "Ġtransmitted": 5719,
      "ĠMSE": 5720,
      "Ñı": 5721,
      "eline": 5722,
      "Ġautomatically": 5723,
      "Ëļ": 5724,
      "Ġcompatible": 5725,
      "vk": 5726,
      "Ġwhy": 5727,
      "Ġoverl": 5728,
      "Ġles": 5729,
      "Ġremainder": 5730,
      "Ġdeviation": 5731,
      "ont": 5732,
      "ĠAmerican": 5733,
      "poly": 5734,
      "Ġlikely": 5735,
      "ĠAck": 5736,
      "rences": 5737,
      "ĠâĪĴ(": 5738,
      "ĠDan": 5739,
      "Ġaway": 5740,
      "Ġthesis": 5741,
      "Ġsurvey": 5742,
      "Ġcircuit": 5743,
      "ðĿĳĸ": 5744,
      "gru": 5745,
      "Ġpartitioning": 5746,
      "NN": 5747,
      "oted": 5748,
      "Ġrelies": 5749,
      "Ġsides": 5750,
      "Ġsetup": 5751,
      "ĠLond": 5752,
      "Ġ1996": 5753,
      "ĠËļ": 5754,
      "Ġrespective": 5755,
      "ĠMinim": 5756,
      "Ġ56": 5757,
      "oo": 5758,
      "rang": 5759,
      "Ġsupports": 5760,
      "Ġremoving": 5761,
      "Ġphysical": 5762,
      "ĠNat": 5763,
      "Ġpointer": 5764,
      "Ġtrunc": 5765,
      "Ġillustrated": 5766,
      "UT": 5767,
      "Ġmassive": 5768,
      "Ġgk": 5769,
      "Ġlabell": 5770,
      "SO": 5771,
      "recy": 5772,
      "ĠÎ²i": 5773,
      "Ġexternal": 5774,
      "Ġtrivially": 5775,
      "Ġconsumption": 5776,
      "Ġcolors": 5777,
      "IG": 5778,
      "ĠCay": 5779,
      "Ġbeamforming": 5780,
      "Ġdiscre": 5781,
      "Zi": 5782,
      "herical": 5783,
      "eterministic": 5784,
      "Ġhighly": 5785,
      "box": 5786,
      "ĠâĹ": 5787,
      "Ġformer": 5788,
      "Ġnoisy": 5789,
      "Ã¨": 5790,
      "Ġautomaton": 5791,
      "ĠâĪĴâĪŀ": 5792,
      "QU": 5793,
      "Ġyear": 5794,
      "Ġheuristic": 5795,
      "termin": 5796,
      "ĠTheoretical": 5797,
      "Ġsensor": 5798,
      "ĠNT": 5799,
      "Ġproviding": 5800,
      "semb": 5801,
      "Ġdecoder": 5802,
      "ðĿĳĽ": 5803,
      "nowled": 5804,
      "Ġorders": 5805,
      "Ġindexed": 5806,
      "Ġfra": 5807,
      "Ġhomotop": 5808,
      "Ġpermutations": 5809,
      "overed": 5810,
      "Ġpolar": 5811,
      "ï£·": 5812,
      "Ġsubsequ": 5813,
      "Ġscalar": 5814,
      "Ġchains": 5815,
      "Ġmass": 5816,
      "Ġfiles": 5817,
      "Ġapproximations": 5818,
      "itness": 5819,
      "Ġsymbolic": 5820,
      "Comp": 5821,
      "rst": 5822,
      "UN": 5823,
      "Ġmodulo": 5824,
      "Ġcj": 5825,
      "ffer": 5826,
      "Ġsharing": 5827,
      "vered": 5828,
      "Ġthroughout": 5829,
      "Ġnested": 5830,
      "top": 5831,
      "Ġgiving": 5832,
      "Ġfinally": 5833,
      "Ġhorizon": 5834,
      "Ġtem": 5835,
      "eni": 5836,
      "Ġpush": 5837,
      "ĠJune": 5838,
      "bre": 5839,
      "ĠLn": 5840,
      "ĠFp": 5841,
      "ĠER": 5842,
      "ĠUAV": 5843,
      "block": 5844,
      "Ġnature": 5845,
      "ĠRule": 5846,
      "Ġcovered": 5847,
      "ĠLanguage": 5848,
      "Ġsynthe": 5849,
      "Ġpacking": 5850,
      "Ġrequest": 5851,
      "IF": 5852,
      "Ġlogical": 5853,
      "Ġthank": 5854,
      "Ġresources": 5855,
      "Ġversus": 5856,
      "Ġte": 5857,
      "ossible": 5858,
      "idel": 5859,
      "Ġsubc": 5860,
      "ula": 5861,
      "Ġhomogeneous": 5862,
      "ĠVal": 5863,
      "ault": 5864,
      ".(": 5865,
      "Ġreconstruction": 5866,
      "ĠâĹıâĹıâĹıâĹı": 5867,
      "ĠStud": 5868,
      "Ġcommunity": 5869,
      "Ġuniquely": 5870,
      "sky": 5871,
      "ĠLiu": 5872,
      "Ġna": 5873,
      "ĠID": 5874,
      "Ġscope": 5875,
      "Ġve": 5876,
      "ĠBernoulli": 5877,
      "Pi": 5878,
      "Ġcommutative": 5879,
      "Ġsimilarity": 5880,
      "Ġdirections": 5881,
      "Ġkxk": 5882,
      "ĠQn": 5883,
      "Ġadmit": 5884,
      "Ġproduced": 5885,
      "Ġunitary": 5886,
      "Ġsphere": 5887,
      "Ġdiameter": 5888,
      "Ġcongru": 5889,
      "Ġ000": 5890,
      "ĠLee": 5891,
      "ĠDu": 5892,
      "sol": 5893,
      "ano": 5894,
      "Ġmeta": 5895,
      "Ġpreced": 5896,
      "110": 5897,
      "Ġtrack": 5898,
      "Ġneither": 5899,
      "Ġespecially": 5900,
      "abelian": 5901,
      "Ġdifferences": 5902,
      "Ġcoarse": 5903,
      "Ġassertion": 5904,
      "Ġport": 5905,
      "Ġisol": 5906,
      "Ġpd": 5907,
      "kin": 5908,
      "non": 5909,
      "Ġdid": 5910,
      "sets": 5911,
      "Gi": 5912,
      "Ġdy": 5913,
      "Ġhypergraph": 5914,
      "Ġgets": 5915,
      "ĠLipschitz": 5916,
      "Ġindicate": 5917,
      "2005": 5918,
      "Ġmoves": 5919,
      "Ġconstrained": 5920,
      "Ġquestions": 5921,
      "Ġdecl": 5922,
      "Ñĭ": 5923,
      "âĪ§": 5924,
      "ĠCAT": 5925,
      "ittle": 5926,
      "Ġbad": 5927,
      "Ð²": 5928,
      "XY": 5929,
      "Ġ101": 5930,
      "Ġsums": 5931,
      "Ġcorrectly": 5932,
      "erial": 5933,
      "orient": 5934,
      "Ġps": 5935,
      "CD": 5936,
      "ivariant": 5937,
      "Ġatoms": 5938,
      "Ġpow": 5939,
      "ĠkÎ¸": 5940,
      "Ġ70": 5941,
      "Ġwj": 5942,
      "ĠïĤ": 5943,
      "Ġmetrics": 5944,
      "NA": 5945,
      "tives": 5946,
      "Ġrely": 5947,
      "ĠCan": 5948,
      "ĠâĪŀ)": 5949,
      "Ġsources": 5950,
      "Ġcommand": 5951,
      "(Â·)": 5952,
      "ĠKL": 5953,
      "ĠAvailable": 5954,
      "Ġcompleteness": 5955,
      "ditionally": 5956,
      "Ġfacts": 5957,
      "ĠQi": 5958,
      "por": 5959,
      "ĠRS": 5960,
      "ĠGroups": 5961,
      "ĠVn": 5962,
      "Ġ58": 5963,
      "ĠKle": 5964,
      "âĦ": 5965,
      "Ġpil": 5966,
      "Ġsemantic": 5967,
      "ones": 5968,
      "Ġnonparametric": 5969,
      "Ġutility": 5970,
      "Ġdatasets": 5971,
      "ĠConstra": 5972,
      "omorphisms": 5973,
      "cc": 5974,
      "ĠSO": 5975,
      "Ġė": 5976,
      "orn": 5977,
      "ĠPR": 5978,
      "ĠSciences": 5979,
      "Ġconcaten": 5980,
      "Ġmultiplicative": 5981,
      "Ġ99": 5982,
      "ambda": 5983,
      "utine": 5984,
      "gr": 5985,
      "Ġjustif": 5986,
      "ĠÎ´n": 5987,
      "Ġexceed": 5988,
      "Ġends": 5989,
      "ĠLu": 5990,
      "Ġsubst": 5991,
      "Ġargue": 5992,
      "Ġsession": 5993,
      "Ġdensities": 5994,
      "lin": 5995,
      "Ġlengths": 5996,
      "Ġverified": 5997,
      "ĠCover": 5998,
      "Ġdistortion": 5999,
      "Ġblack": 6000,
      "Ġdecrease": 6001,
      "Ġperforming": 6002,
      "Ġallowing": 6003,
      "Ġconstructing": 6004,
      "name": 6005,
      "ĠChapter": 6006,
      "Ġsurely": 6007,
      "Ġheter": 6008,
      "Ġ63": 6009,
      "Ġoperational": 6010,
      "Ġreceive": 6011,
      "Ġsimplify": 6012,
      "Ġconvenient": 6013,
      "reed": 6014,
      "Section": 6015,
      "ĠOptimization": 6016,
      "ĠdÂµ": 6017,
      "kov": 6018,
      "ĠÎ³i": 6019,
      "hing": 6020,
      "Ġcalculated": 6021,
      "ĠClass": 6022,
      "Ġrepeat": 6023,
      "Ġresol": 6024,
      "ool": 6025,
      "Ġmanip": 6026,
      "ĠÎ»x": 6027,
      "Ġrestrict": 6028,
      "Ġplus": 6029,
      "function": 6030,
      "ique": 6031,
      "Ġdoc": 6032,
      "band": 6033,
      "omm": 6034,
      "Ġ59": 6035,
      "Ġsj": 6036,
      "Ġdeep": 6037,
      "Ġnotions": 6038,
      "PR": 6039,
      "ĠOf": 6040,
      "ĠAC": 6041,
      "IV": 6042,
      "Ġocc": 6043,
      "rink": 6044,
      "rs": 6045,
      "ynchron": 6046,
      "ĠPri": 6047,
      "Ġmixing": 6048,
      "Ġsends": 6049,
      "lects": 6050,
      "lim": 6051,
      "Ġinfluence": 6052,
      "ĠIts": 6053,
      "Ġmm": 6054,
      "ĠCent": 6055,
      "Ġcorrespondence": 6056,
      "ĠAcknowled": 6057,
      "left": 6058,
      "Ġ400": 6059,
      "Ġsketch": 6060,
      "abs": 6061,
      "Ġ95": 6062,
      "Ġcomb": 6063,
      "Sch": 6064,
      "ĠCarlo": 6065,
      "index": 6066,
      "Ġapplicable": 6067,
      "Ġneg": 6068,
      "Ġvariants": 6069,
      "aptive": 6070,
      "ĠÏĥn": 6071,
      "ko": 6072,
      "2004": 6073,
      "Ġbid": 6074,
      "Ġadjust": 6075,
      "Ġconnecting": 6076,
      "Ġconverge": 6077,
      "Ġanc": 6078,
      "Ġnone": 6079,
      "ĠâĨĳ": 6080,
      "DU": 6081,
      "ĠkÎ²": 6082,
      "Ġbag": 6083,
      "Ġgoing": 6084,
      "Ġcovers": 6085,
      "ĠURL": 6086,
      "Ġcooper": 6087,
      "Ġconstructs": 6088,
      "Ġflexi": 6089,
      "Ġequipped": 6090,
      "Ġ61": 6091,
      "Ġdiffer": 6092,
      "plo": 6093,
      "ĠÎ³n": 6094,
      "Ġspecify": 6095,
      "icial": 6096,
      "Ġdn": 6097,
      ",`": 6098,
      "pective": 6099,
      "ĠâŁ¨": 6100,
      "pa": 6101,
      "Ġcf": 6102,
      "Ġmobile": 6103,
      "ĠÏĤ": 6104,
      "hu": 6105,
      "Ġschedule": 6106,
      "Ġcomplic": 6107,
      "Ġorbits": 6108,
      "ïĢ": 6109,
      "ĠLondon": 6110,
      "ĠEF": 6111,
      "1007": 6112,
      "itude": 6113,
      "Ġhardware": 6114,
      "Ġcontexts": 6115,
      "izers": 6116,
      "Ġdetermines": 6117,
      "Ġbey": 6118,
      "ĠOptimal": 6119,
      "Ġseparately": 6120,
      "ĠCj": 6121,
      "ĠLNCS": 6122,
      "Ġupdated": 6123,
      "Ġrelaxation": 6124,
      "Ġbeyond": 6125,
      "Ġdevices": 6126,
      "Ġsolver": 6127,
      "ĠAB": 6128,
      "ĠSur": 6129,
      "ĠHall": 6130,
      "Ġpackets": 6131,
      "theoretic": 6132,
      "ĠNY": 6133,
      "Ġquas": 6134,
      "Ġpassing": 6135,
      "Ġoutperform": 6136,
      "inue": 6137,
      "Ġuj": 6138,
      "ĠEstimation": 6139,
      "ĠHaskell": 6140,
      "Ġheavy": 6141,
      "Ġstop": 6142,
      "Ġuv": 6143,
      "isher": 6144,
      "ĠAct": 6145,
      "Ġrestrictions": 6146,
      "Ġexponentially": 6147,
      "Ġtyped": 6148,
      "icate": 6149,
      "ĠCov": 6150,
      "Ar": 6151,
      "ĠÄĥ": 6152,
      "ĠWill": 6153,
      "](": 6154,
      "actic": 6155,
      "Ġmodular": 6156,
      "Ġissues": 6157,
      "Ġmatched": 6158,
      "fact": 6159,
      "ĠMichael": 6160,
      "Ġconcepts": 6161,
      "Figure": 6162,
      "Ġexper": 6163,
      "ĠJac": 6164,
      "ĠÎ»n": 6165,
      "Ġatomic": 6166,
      "uition": 6167,
      "ml": 6168,
      "Ġpay": 6169,
      "inger": 6170,
      "place": 6171,
      "Ġaccurate": 6172,
      "Gn": 6173,
      "llig": 6174,
      "Ġworking": 6175,
      "abolic": 6176,
      "CES": 6177,
      "ĠPoly": 6178,
      "uary": 6179,
      "ĠLasso": 6180,
      "oul": 6181,
      "Ġmeasured": 6182,
      "Ġsubgraphs": 6183,
      "ĠPm": 6184,
      "Ġï¬ģn": 6185,
      "2000": 6186,
      "ĠIP": 6187,
      "Ġexperimental": 6188,
      "Ġcube": 6189,
      "Ġ`(": 6190,
      "iles": 6191,
      "Ġshif": 6192,
      "Ġspecifically": 6193,
      "kl": 6194,
      "âĻ¯": 6195,
      "Ġwn": 6196,
      "Ġoccurrence": 6197,
      "vis": 6198,
      "Ġinvolving": 6199,
      "Ġoptimum": 6200,
      "missible": 6201,
      "Ġcoincides": 6202,
      "Ġaspects": 6203,
      "Ġdefinite": 6204,
      "ship": 6205,
      "orted": 6206,
      "Ġparticularly": 6207,
      "Ġ1994": 6208,
      "Ðº": 6209,
      "Ġ300": 6210,
      "ĠPy": 6211,
      "ologies": 6212,
      "Ġconnectivity": 6213,
      "ĠCSI": 6214,
      "Ġnonlinear": 6215,
      "sa": 6216,
      "Ġmatches": 6217,
      "Ġarrow": 6218,
      "Î»x": 6219,
      "Ġinterior": 6220,
      "Ġ1995": 6221,
      "lective": 6222,
      "Ġinterpreted": 6223,
      "erc": 6224,
      "Ġbalanced": 6225,
      ")âĢĵ": 6226,
      "tn": 6227,
      "ĠSj": 6228,
      "ĠParallel": 6229,
      "atively": 6230,
      "lor": 6231,
      "ĠMag": 6232,
      "Ġnoted": 6233,
      "Ġtag": 6234,
      "haus": 6235,
      "ala": 6236,
      "Ġrough": 6237,
      "squ": 6238,
      "typed": 6239,
      "Ġsummary": 6240,
      "condition": 6241,
      "Ġsocial": 6242,
      "Ġsecrecy": 6243,
      "Ġpu": 6244,
      "RR": 6245,
      "Op": 6246,
      "auch": 6247,
      "Ġunderstanding": 6248,
      "GE": 6249,
      "Ġproperly": 6250,
      "--------": 6251,
      "cessive": 6252,
      "za": 6253,
      "yclic": 6254,
      "ĠState": 6255,
      "Ġconcludes": 6256,
      "ĠEven": 6257,
      "cles": 6258,
      "Ġstabilizer": 6259,
      "list": 6260,
      "Ġmonit": 6261,
      "Ġoccurrences": 6262,
      "cn": 6263,
      "VE": 6264,
      "Ġaccept": 6265,
      "Ġhighest": 6266,
      "Ġshe": 6267,
      "omen": 6268,
      "ĠÃ¿": 6269,
      "Ġcircle": 6270,
      "Ġproportional": 6271,
      "Ġcausal": 6272,
      "ď)": 6273,
      "ĠJanuary": 6274,
      "Ġpenalty": 6275,
      "gue": 6276,
      "Ġsegments": 6277,
      "Ġsurjective": 6278,
      "ĠEurop": 6279,
      "Ġchecks": 6280,
      "Ġbinding": 6281,
      "ĠBel": 6282,
      "Ġinform": 6283,
      "yle": 6284,
      "Ġ75": 6285,
      "Ġyn": 6286,
      "ĠImplement": 6287,
      "ĠBk": 6288,
      "Ġspread": 6289,
      "ĠOR": 6290,
      "ht": 6291,
      "Ġletters": 6292,
      "Ġwitness": 6293,
      "ues": 6294,
      "reserving": 6295,
      "Ġyj": 6296,
      "Ġreturned": 6297,
      "Ġattain": 6298,
      "anes": 6299,
      "Ġnotations": 6300,
      "biased": 6301,
      "Ġexchange": 6302,
      "Ġcome": 6303,
      "Ġfill": 6304,
      "KL": 6305,
      "trans": 6306,
      "ĠRam": 6307,
      "Ġrecursively": 6308,
      "ĠCT": 6309,
      "Ġperspective": 6310,
      "Ġalternating": 6311,
      "BF": 6312,
      "ĠDynamic": 6313,
      "Ġspe": 6314,
      "RAFT": 6315,
      "Vi": 6316,
      "ĠÎ±j": 6317,
      "Ġreverse": 6318,
      "this": 6319,
      "Ġtruth": 6320,
      "ĠTra": 6321,
      "fs": 6322,
      "tin": 6323,
      "ĠTechnical": 6324,
      "Ġwk": 6325,
      "stable": 6326,
      "Ġvirtually": 6327,
      "fn": 6328,
      "ĠLocal": 6329,
      "ĠKh": 6330,
      "Ġdetect": 6331,
      "Ġfk": 6332,
      "ĠSym": 6333,
      "tered": 6334,
      "Ġï¿½": 6335,
      "Ġcontinue": 6336,
      "ĠCher": 6337,
      "ugging": 6338,
      "Ġvisual": 6339,
      "Ġkb": 6340,
      "Ġfaith": 6341,
      "Rn": 6342,
      "Ġrepair": 6343,
      "Xk": 6344,
      "Ġclosely": 6345,
      "Ġsquared": 6346,
      "Ġrepresentative": 6347,
      "................................": 6348,
      "ĠNetworks": 6349,
      "gid": 6350,
      "ĠJi": 6351,
      "Ġcohomology": 6352,
      "enius": 6353,
      "Se": 6354,
      "ĠCOM": 6355,
      "ĠÄħ": 6356,
      "ĠThroughout": 6357,
      "Ġendpoint": 6358,
      "Ġkernels": 6359,
      "ĠMethods": 6360,
      "weighted": 6361,
      "Ġlattices": 6362,
      ")[": 6363,
      "amma": 6364,
      "Ġthink": 6365,
      "Ġextensive": 6366,
      "inters": 6367,
      "Ġslow": 6368,
      "tran": 6369,
      "Ġclient": 6370,
      "Ġimpossible": 6371,
      "theless": 6372,
      "Ġquantities": 6373,
      "ypt": 6374,
      "ï£¬": 6375,
      "Ġinsi": 6376,
      "Ġsays": 6377,
      "Ġblue": 6378,
      "Ġcurrently": 6379,
      "DA": 6380,
      "ĠSS": 6381,
      "Ġ65": 6382,
      "cu": 6383,
      "omic": 6384,
      "Ġcompressed": 6385,
      "ĠDL": 6386,
      "END": 6387,
      "ho": 6388,
      "Ġergodic": 6389,
      "Ġpc": 6390,
      "land": 6391,
      "hic": 6392,
      "Ġactiv": 6393,
      "cluding": 6394,
      "]âĢĵ": 6395,
      "ĠSIN": 6396,
      "ĠRelated": 6397,
      "Ġtot": 6398,
      "Ġreported": 6399,
      "gets": 6400,
      "vy": 6401,
      "Ġoutcome": 6402,
      "ĠStat": 6403,
      "Ġnearest": 6404,
      "consist": 6405,
      "Ġvarying": 6406,
      "Ġtraditional": 6407,
      "robenius": 6408,
      "bj": 6409,
      "Ġvot": 6410,
      "Ġunbounded": 6411,
      "Ġdisplay": 6412,
      "ĠPU": 6413,
      "Ġgad": 6414,
      "Ġconstructions": 6415,
      "omain": 6416,
      "ĠRa": 6417,
      "ask": 6418,
      "Ġintuition": 6419,
      "Ġinvolution": 6420,
      "Ġminimizing": 6421,
      "ĠSeman": 6422,
      "Ġhk": 6423,
      "ĠJuly": 6424,
      "Ġdependency": 6425,
      "ogram": 6426,
      "GM": 6427,
      "va": 6428,
      "ĠLin": 6429,
      "zer": 6430,
      "Ġmaximization": 6431,
      "Ġsimplicial": 6432,
      "ĠGR": 6433,
      "ĠCur": 6434,
      "mid": 6435,
      "versity": 6436,
      "ĠDistributed": 6437,
      "Ġdk": 6438,
      "Ġreasonable": 6439,
      "ĠÎµn": 6440,
      "Ġcontradicts": 6441,
      "ĠBrow": 6442,
      "state": 6443,
      "Ġancest": 6444,
      "ĠPet": 6445,
      "ĠKr": 6446,
      "eld": 6447,
      "inuous": 6448,
      "Ġtends": 6449,
      "ompact": 6450,
      "ĠConclusion": 6451,
      "Ġidentification": 6452,
      "Ġwidely": 6453,
      "Ġfron": 6454,
      "Bn": 6455,
      "Ġnonnegative": 6456,
      "ĠDRAFT": 6457,
      "ĠBan": 6458,
      "ether": 6459,
      "sn": 6460,
      "ĠLar": 6461,
      "ĠOutput": 6462,
      "xiv": 6463,
      "ĠCM": 6464,
      "ĠpX": 6465,
      "Ġterminates": 6466,
      "zk": 6467,
      "Ġguess": 6468,
      "ĠThom": 6469,
      "ĠChar": 6470,
      "ĠSha": 6471,
      "ĠControl": 6472,
      "label": 6473,
      "ĠNOMA": 6474,
      "Ġtraffic": 6475,
      "Ġparity": 6476,
      "ĠâĩĲâĩĴ": 6477,
      "emory": 6478,
      "KS": 6479,
      "Ġmatroid": 6480,
      "ĠBj": 6481,
      "ĠGra": 6482,
      "ĠĜ": 6483,
      "inal": 6484,
      ",âĪŀ": 6485,
      "Ġcharacterize": 6486,
      "Ġtraject": 6487,
      "var": 6488,
      "fl": 6489,
      "fill": 6490,
      "ĠAj": 6491,
      "Ġsubstr": 6492,
      "formance": 6493,
      "1111": 6494,
      "Ġconvenience": 6495,
      "abled": 6496,
      ")-(": 6497,
      "ĠXu": 6498,
      "âĨĵ": 6499,
      "Ġtell": 6500,
      "ĠLp": 6501,
      "ĠkP": 6502,
      "Ġplayer": 6503,
      "ĠExperim": 6504,
      "degree": 6505,
      "Ġuncertainty": 6506,
      "ĠKi": 6507,
      "ĠVe": 6508,
      "Ġcompar": 6509,
      "ĠAdditionally": 6510,
      "auchy": 6511,
      "(`": 6512,
      "Ġgeneralize": 6513,
      "Ġsimulated": 6514,
      "Ġbroadcast": 6515,
      "âŁ©": 6516,
      "OPT": 6517,
      "Ġconstit": 6518,
      "ongest": 6519,
      "Ġtwice": 6520,
      "ITY": 6521,
      "lementary": 6522,
      "ĠCode": 6523,
      "ĠMartin": 6524,
      "ĠPj": 6525,
      "text": 6526,
      "Ġaverag": 6527,
      "Ġrequests": 6528,
      "ÑģÑĤ": 6529,
      "osable": 6530,
      "alks": 6531,
      "PC": 6532,
      "Ġ()": 6533,
      "Ġenables": 6534,
      "Ġapproximated": 6535,
      "ï¬ĥ": 6536,
      "ĠÎ»j": 6537,
      "ĠTree": 6538,
      "thon": 6539,
      "ĠName": 6540,
      "arrier": 6541,
      "isimple": 6542,
      "ĠSQ": 6543,
      "ĠConverse": 6544,
      "ĠÌº": 6545,
      "Ri": 6546,
      "Ġconflic": 6547,
      "ustom": 6548,
      "Ġrewriting": 6549,
      "Ġeditors": 6550,
      "uniform": 6551,
      "Ġquick": 6552,
      "ÐµÐ½": 6553,
      "mut": 6554,
      "ĠâĪ¥": 6555,
      "Ġbranching": 6556,
      "semble": 6557,
      "Ġpowers": 6558,
      "hk": 6559,
      "Ġwt": 6560,
      "Ġsubsequent": 6561,
      "Ġcentered": 6562,
      "onential": 6563,
      "iff": 6564,
      "aylor": 6565,
      "Ġfinds": 6566,
      "ions": 6567,
      "ĠYn": 6568,
      "[[": 6569,
      "Ïĥi": 6570,
      "Ġpredict": 6571,
      "Ġorientation": 6572,
      "Ġcomplicated": 6573,
      "Ġmagnitude": 6574,
      "MC": 6575,
      "afety": 6576,
      "bu": 6577,
      "Ġtim": 6578,
      "omposition": 6579,
      "Ġsynthesis": 6580,
      "valid": 6581,
      "Ġxm": 6582,
      "ðĿľ": 6583,
      "inte": 6584,
      "Ġgraphical": 6585,
      "Ġprojections": 6586,
      "ĠdG": 6587,
      "separ": 6588,
      "ĠEk": 6589,
      "node": 6590,
      "ĠYang": 6591,
      "iminaries": 6592,
      "OG": 6593,
      "ĠCp": 6594,
      "ĠCayley": 6595,
      "Ġexploit": 6596,
      "Ġear": 6597,
      "iley": 6598,
      "Ġlogarithmic": 6599,
      "ĠStoch": 6600,
      "Fi": 6601,
      "Ġsometimes": 6602,
      "Ġconvolution": 6603,
      "ĠLR": 6604,
      "gk": 6605,
      "ĠRT": 6606,
      "ĠOnce": 6607,
      "ĠSept": 6608,
      "irection": 6609,
      "olec": 6610,
      "plink": 6611,
      "Ġnp": 6612,
      "Ġadop": 6613,
      "selves": 6614,
      "Ġcorrelated": 6615,
      "Ġflo": 6616,
      "Ġprocessor": 6617,
      "oriented": 6618,
      "Ġbuck": 6619,
      "Ġlift": 6620,
      "Ġjump": 6621,
      "Ġmissing": 6622,
      "Ġnoting": 6623,
      "eta": 6624,
      "ĠHk": 6625,
      "Ġgrows": 6626,
      "ĠComplexity": 6627,
      "ivariate": 6628,
      "Ġcompilation": 6629,
      "Ġinsertion": 6630,
      "ert": 6631,
      "ĠEuropean": 6632,
      "Ġcompetitive": 6633,
      "Ġformed": 6634,
      "DL": 6635,
      "Ġmaximize": 6636,
      "Ñĩ": 6637,
      "ĠPrel": 6638,
      "Ġsuggests": 6639,
      "Ġanti": 6640,
      "Ġnearly": 6641,
      "Ġusage": 6642,
      "ĠNational": 6643,
      "Ġpapers": 6644,
      "Ġvertical": 6645,
      "itten": 6646,
      "ACT": 6647,
      "ĠGk": 6648,
      "Ġcombine": 6649,
      "Ġtraces": 6650,
      "Ġready": 6651,
      "Ġsucceed": 6652,
      "ĠMLE": 6653,
      "ĠMain": 6654,
      "Ġdecide": 6655,
      "constra": 6656,
      "Ġconventional": 6657,
      ")}.": 6658,
      "ĠdT": 6659,
      "Ġweb": 6660,
      "Ġmodify": 6661,
      "uler": 6662,
      "Ġinvertible": 6663,
      "Ġfive": 6664,
      "ĠPÎ¸": 6665,
      "Ġlabelled": 6666,
      "Ġcd": 6667,
      "ĠNa": 6668,
      "ander": 6669,
      "rep": 6670,
      "calculus": 6671,
      "Ġsemigroups": 6672,
      "jug": 6673,
      "uration": 6674,
      "Ġpossibility": 6675,
      "Ġregister": 6676,
      "jected": 6677,
      "Ġï¬ģrst": 6678,
      "Ġmultic": 6679,
      "ĠPol": 6680,
      "Ġhh": 6681,
      "Ġ{âĪĴ": 6682,
      "Ġfresh": 6683,
      "preserving": 6684,
      "Ġencoded": 6685,
      "Ġyears": 6686,
      "ĠCV": 6687,
      "2003": 6688,
      "Id": 6689,
      "ĠTerm": 6690,
      "ĠKo": 6691,
      "Ġexplore": 6692,
      "Ġdesigns": 6693,
      "ĠAx": 6694,
      "ortunately": 6695,
      "ĠBa": 6696,
      "Ġprimary": 6697,
      "Ġimportance": 6698,
      "ĠEnd": 6699,
      "Ġpowerful": 6700,
      "ĠAssoci": 6701,
      "Ġinvestigated": 6702,
      "manif": 6703,
      "ĠOpen": 6704,
      "mk": 6705,
      "ulated": 6706,
      "Ġworth": 6707,
      "ĠUnf": 6708,
      "sec": 6709,
      "Gaussian": 6710,
      "ĠZp": 6711,
      ")âĪĹ": 6712,
      "Ġcontrib": 6713,
      "Ġsimplified": 6714,
      "leton": 6715,
      "Ġdevice": 6716,
      "nar": 6717,
      "Ġfu": 6718,
      "ĠDel": 6719,
      "ĠPN": 6720,
      "Ġassignments": 6721,
      "Ġangle": 6722,
      "ams": 6723,
      "gal": 6724,
      "Ġsorted": 6725,
      "EG": 6726,
      "ĠCauchy": 6727,
      "ĠÏĦi": 6728,
      "Ġcontraction": 6729,
      "Ġ1993": 6730,
      "ĠIntuitively": 6731,
      "hibit": 6732,
      "ĠIR": 6733,
      "Ġreasons": 6734,
      "Ġinterpret": 6735,
      "Ġtract": 6736,
      "Ġadversary": 6737,
      "Ġdeletion": 6738,
      "matrix": 6739,
      "ĠMed": 6740,
      "ĠJS": 6741,
      "Ġcontinuity": 6742,
      "ĠAlex": 6743,
      "ns": 6744,
      "typing": 6745,
      "##": 6746,
      "Ġkp": 6747,
      "ĠGP": 6748,
      "Ġdiction": 6749,
      "Ġpreserving": 6750,
      "ABLE": 6751,
      "]âĢĵ[": 6752,
      "Ġminor": 6753,
      "subgroup": 6754,
      "ĠÂ·)": 6755,
      "001": 6756,
      "Ġdiffusion": 6757,
      "rical": 6758,
      "GN": 6759,
      "Ġgrant": 6760,
      "vectors": 6761,
      "Â·Â·Â·": 6762,
      "Ġbriefly": 6763,
      "Ġrj": 6764,
      "inst": 6765,
      "Ġtry": 6766,
      "qi": 6767,
      "Ġoverview": 6768,
      "Ġcodeword": 6769,
      "ĠKa": 6770,
      "erning": 6771,
      "Ġprogress": 6772,
      "Ġlittle": 6773,
      "ĠâĬĥ": 6774,
      "ĠDAG": 6775,
      "Ġâľ·": 6776,
      "Ġhistory": 6777,
      "ïĥ": 6778,
      "Ġtables": 6779,
      "Ġsymp": 6780,
      "Ġsubd": 6781,
      "Ġrouting": 6782,
      "ĠNov": 6783,
      "Ġmapped": 6784,
      "Ġarise": 6785,
      "amed": 6786,
      "Ġinfinitely": 6787,
      "Cn": 6788,
      "1145": 6789,
      "ager": 6790,
      "ĠFr": 6791,
      "\\{": 6792,
      "ĠExamples": 6793,
      "Ġ|(": 6794,
      "ĠRiemann": 6795,
      "Ġskew": 6796,
      "means": 6797,
      "br": 6798,
      "Ġhappen": 6799,
      "Hi": 6800,
      "ĠPrinci": 6801,
      "Ġhu": 6802,
      "Ġcharacterized": 6803,
      "ĠPY": 6804,
      "Ġrealization": 6805,
      "ĠSynt": 6806,
      "Ġconstructor": 6807,
      "Sh": 6808,
      "Ġtransformed": 6809,
      "Ġnet": 6810,
      "Ġpriority": 6811,
      "Ġhidden": 6812,
      "annon": 6813,
      "Ġ150": 6814,
      "Ġwriting": 6815,
      "Ġspecifications": 6816,
      "Ġdon": 6817,
      "Ġprice": 6818,
      "Ġprotocols": 6819,
      "Ġcoded": 6820,
      "icated": 6821,
      "ĠPt": 6822,
      "ĠDP": 6823,
      "Ġeq": 6824,
      "ĠUL": 6825,
      "AK": 6826,
      "idable": 6827,
      "NT": 6828,
      "Ġmk": 6829,
      "ĠdP": 6830,
      "ĠIM": 6831,
      "Ġchanging": 6832,
      "Ġlabeling": 6833,
      "Ġparabolic": 6834,
      "since": 6835,
      "Ġcontributions": 6836,
      "tificial": 6837,
      "Ġcategories": 6838,
      "igible": 6839,
      "Ġobtaining": 6840,
      "ĠConversely": 6841,
      "App": 6842,
      "Ġcoupling": 6843,
      "Ġcomparing": 6844,
      "Ġfactorization": 6845,
      "roll": 6846,
      "2002": 6847,
      "ilton": 6848,
      "Ġresi": 6849,
      "ĠApproximation": 6850,
      "hel": 6851,
      "Co": 6852,
      "ĠLI": 6853,
      "Ġqn": 6854,
      "Ġgene": 6855,
      "ĠMost": 6856,
      "Ġfixes": 6857,
      "Ġdownlink": 6858,
      "alls": 6859,
      "Var": 6860,
      "ĠïĢ«": 6861,
      "herence": 6862,
      "ĠFinite": 6863,
      "ĠTk": 6864,
      "Ġlock": 6865,
      "ĠFre": 6866,
      ".âĢĿ": 6867,
      "Ġce": 6868,
      "Ġimper": 6869,
      "ĠMatrix": 6870,
      "Ġmerge": 6871,
      "ĠAcad": 6872,
      "Ġhierarchy": 6873,
      "Ġsat": 6874,
      "Ġeasier": 6875,
      "iss": 6876,
      "prising": 6877,
      "Ġmonad": 6878,
      "Ġanswers": 6879,
      "ĠSINR": 6880,
      "Ġanalyses": 6881,
      "Ġcombinations": 6882,
      "ĠTake": 6883,
      "Ġsuccessful": 6884,
      "phas": 6885,
      "Ġidemp": 6886,
      "Ġspl": 6887,
      "ĠTaking": 6888,
      "Ġdead": 6889,
      "Ġlimiting": 6890,
      "Ġdeploy": 6891,
      "Ġseparable": 6892,
      "ĠHigh": 6893,
      "ĠHow": 6894,
      "ĠQuantum": 6895,
      "arb": 6896,
      "Ġhorizontal": 6897,
      "lected": 6898,
      "Ġintroducing": 6899,
      "Ġsynchronization": 6900,
      "ĠRun": 6901,
      "Î»i": 6902,
      "Ġpotentially": 6903,
      "ĠWu": 6904,
      "ectures": 6905,
      "Î¸i": 6906,
      "Ġaffect": 6907,
      "Ġincorpor": 6908,
      "Ġstructured": 6909,
      "udget": 6910,
      "ĠTaylor": 6911,
      "Ġneural": 6912,
      "Ġek": 6913,
      "âĪ¨": 6914,
      "Ġï¬ģnite": 6915,
      "ounts": 6916,
      "mers": 6917,
      "bal": 6918,
      "icro": 6919,
      "Ġweaker": 6920,
      "EREN": 6921,
      "Ġstreams": 6922,
      "related": 6923,
      "new": 6924,
      "Ġperiodic": 6925,
      "ycle": 6926,
      "2001": 6927,
      "Ġfj": 6928,
      "NF": 6929,
      "Ġpan": 6930,
      "uster": 6931,
      "ĠSV": 6932,
      "ats": 6933,
      "Ġtotally": 6934,
      "ales": 6935,
      "ĠPower": 6936,
      "Ġpilot": 6937,
      "Ġdr": 6938,
      "Ġcomplexes": 6939,
      "ĠModels": 6940,
      "Ġintegration": 6941,
      "ĠBes": 6942,
      "Ġparad": 6943,
      "DI": 6944,
      "Ġtemporal": 6945,
      "Ġsake": 6946,
      "arity": 6947,
      "SL": 6948,
      "Ġhyperplane": 6949,
      "Ġphen": 6950,
      "Ġenfor": 6951,
      "âĬĨ": 6952,
      "ĠWiley": 6953,
      "ĠFunctional": 6954,
      "coming": 6955,
      "Ġdivide": 6956,
      "Ġtj": 6957,
      "otal": 6958,
      "Ġrise": 6959,
      "efficient": 6960,
      "ĠRet": 6961,
      "BL": 6962,
      "ulations": 6963,
      "pass": 6964,
      "Ġbund": 6965,
      "parameter": 6966,
      "ĠBra": 6967,
      "Ġinterpol": 6968,
      "igu": 6969,
      "ographic": 6970,
      "Ġsubspaces": 6971,
      "Ġbraid": 6972,
      "Ð¿": 6973,
      "Ġregarding": 6974,
      "ĠStochastic": 6975,
      "Ġshrink": 6976,
      "Ġpic": 6977,
      "Ġsecure": 6978,
      "Sk": 6979,
      "sided": 6980,
      "ĠFrobenius": 6981,
      "ĠSN": 6982,
      "oot": 6983,
      "IA": 6984,
      "Ġchecked": 6985,
      "Ġemphas": 6986,
      "px": 6987,
      "Ġfib": 6988,
      "Ġrandomness": 6989,
      "Ġspherical": 6990,
      "Ġhighl": 6991,
      "ĠCal": 6992,
      "closed": 6993,
      "Tr": 6994,
      "cr": 6995,
      "ĠNormal": 6996,
      "Ġbelieve": 6997,
      "vj": 6998,
      "Ġoriented": 6999,
      "ĠCPU": 7000,
      "Ġguard": 7001,
      "Ġreducing": 7002,
      "Ġ)âĪĹ": 7003,
      "Ġexecute": 7004,
      "Ġhomotopy": 7005,
      "Ġcongruence": 7006,
      "Ġmoreover": 7007,
      "tw": 7008,
      "Ġpurposes": 7009,
      "Ġsubsequence": 7010,
      "dy": 7011,
      "ĠRoy": 7012,
      "Ġzk": 7013,
      "atory": 7014,
      "degener": 7015,
      "Ġmanagement": 7016,
      "ider": 7017,
      "ĠMarch": 7018,
      "placian": 7019,
      "ITH": 7020,
      "Ġïģ¡": 7021,
      "Ġbenchmarks": 7022,
      "Ġcomputationally": 7023,
      "vertex": 7024,
      "Ġcriteria": 7025,
      "problem": 7026,
      "map": 7027,
      "Ġmodification": 7028,
      "ĠkL": 7029,
      "Ġrot": 7030,
      "ĠAdvances": 7031,
      "war": 7032,
      "ĠPath": 7033,
      "Ġappe": 7034,
      "Di": 7035,
      "âĪĥ": 7036,
      "ativity": 7037,
      "check": 7038,
      "ĠDC": 7039,
      "Ġadmissible": 7040,
      "Ãĳ": 7041,
      "Ġ|{": 7042,
      "Ġautomata": 7043,
      "Ġbounding": 7044,
      "Ġbuffer": 7045,
      "aut": 7046,
      "Hn": 7047,
      "Ġintersect": 7048,
      "Ġballs": 7049,
      "uman": 7050,
      "ĠÂµn": 7051,
      "ĠÐ¿": 7052,
      "ĠâĪĴâĪĴâĪĴ": 7053,
      "Ġletter": 7054,
      "Ġ(~": 7055,
      "Ġoutage": 7056,
      "Ġwalks": 7057,
      "ato": 7058,
      "Ġconsiders": 7059,
      "Ġ1992": 7060,
      "Ġinher": 7061,
      "ĠPC": 7062,
      "ĠÎ´i": 7063,
      "ĠMC": 7064,
      "ĠDat": 7065,
      "ĠÏģn": 7066,
      "local": 7067,
      "ĠRR": 7068,
      "pite": 7069,
      "Ġsituations": 7070,
      "Ġnond": 7071,
      "Ġcarry": 7072,
      "ĠSD": 7073,
      "HT": 7074,
      "ĠComparison": 7075,
      "Ġhierarchical": 7076,
      "Ġdescent": 7077,
      "Ġillustrates": 7078,
      "âĪ£": 7079,
      "simp": 7080,
      "Ġdrop": 7081,
      "Ġdiver": 7082,
      "going": 7083,
      "vices": 7084,
      "Ġparticip": 7085,
      "ĠElectron": 7086,
      "ĠoP": 7087,
      "Ġimproves": 7088,
      "Ġcomparisons": 7089,
      "Ġstores": 7090,
      "hedral": 7091,
      "Ġsto": 7092,
      "Tn": 7093,
      "ĠThm": 7094,
      "ej": 7095,
      "rip": 7096,
      "Ġ1991": 7097,
      "Ġmeet": 7098,
      "PLAN": 7099,
      "enberg": 7100,
      "Ġsemisimple": 7101,
      "ĠâĮĭ": 7102,
      "Ġmechanisms": 7103,
      "ĠNever": 7104,
      "ĠCO": 7105,
      "Ġadjacency": 7106,
      "ĠChoose": 7107,
      "reedom": 7108,
      "ĠDifferen": 7109,
      "Ġprel": 7110,
      "bur": 7111,
      "sample": 7112,
      "eties": 7113,
      "ĠTheir": 7114,
      "iminary": 7115,
      "Ġintroduces": 7116,
      "Ġcoincide": 7117,
      "UE": 7118,
      "using": 7119,
      "Ġterminals": 7120,
      "Ġphenomen": 7121,
      "atform": 7122,
      "Ġann": 7123,
      "assification": 7124,
      "Ġcustom": 7125,
      "Ġdifferentiable": 7126,
      "ĠDE": 7127,
      "cing": 7128,
      "Ġâī»": 7129,
      "ography": 7130,
      "ĠRM": 7131,
      "dependent": 7132,
      "equival": 7133,
      "Algorithm": 7134,
      "modules": 7135,
      "Ġmiddle": 7136,
      "ords": 7137,
      "Ġpubl": 7138,
      "acher": 7139,
      "sibly": 7140,
      "Ġwhite": 7141,
      "ĠPhase": 7142,
      "Ġleave": 7143,
      "ivers": 7144,
      "ade": 7145,
      "Ġcomposed": 7146,
      "Ġmodeled": 7147,
      "Ġ128": 7148,
      "ĠTs": 7149,
      "Ġdeb": 7150,
      "BR": 7151,
      "Ġuplink": 7152,
      "Ġoverlap": 7153,
      "Ġconnections": 7154,
      "Ġregularization": 7155,
      "Ġorganized": 7156,
      "Ġdoub": 7157,
      "iness": 7158,
      "ĠInc": 7159,
      "Ġanalyzed": 7160,
      "ĠMT": 7161,
      "ĠGPU": 7162,
      "used": 7163,
      "ĠPut": 7164,
      "ĠVa": 7165,
      "WT": 7166,
      "values": 7167,
      "ĠProofs": 7168,
      "Ġregularity": 7169,
      "Ġability": 7170,
      "isted": 7171,
      "Ġdivides": 7172,
      "Ġarises": 7173,
      "Ġinversion": 7174,
      "Ġquantile": 7175,
      "rossing": 7176,
      "Ġoptimized": 7177,
      "Ġoption": 7178,
      "key": 7179,
      "ĠSylow": 7180,
      "Ġinsert": 7181,
      "tj": 7182,
      "ĠÎ³k": 7183,
      "gen": 7184,
      "Ġnonempty": 7185,
      "complex": 7186,
      "rk": 7187,
      "ĠCHR": 7188,
      "gra": 7189,
      "estim": 7190,
      "Ġenh": 7191,
      "Ġlambda": 7192,
      "field": 7193,
      "ĠJul": 7194,
      "ĠObservation": 7195,
      "Wave": 7196,
      "code": 7197,
      "Ui": 7198,
      "Ġamb": 7199,
      "Ġlatent": 7200,
      "Ġeventually": 7201,
      "Ġprefer": 7202,
      "ĠMI": 7203,
      "Ġsuccessive": 7204,
      "ĠWhat": 7205,
      "ĠPH": 7206,
      "Ġlex": 7207,
      "ude": 7208,
      "dor": 7209,
      "Ġreached": 7210,
      "Ġbins": 7211,
      "what": 7212,
      "Ġsecret": 7213,
      "Ġopposite": 7214,
      "Pr": 7215,
      ",âĪĴ": 7216,
      "ĠAssuming": 7217,
      "Ġderivatives": 7218,
      "Ġensemble": 7219,
      "dro": 7220,
      "liv": 7221,
      "ĠEG": 7222,
      "Ġincreased": 7223,
      "ober": 7224,
      "urst": 7225,
      "Ġdefault": 7226,
      "Ġomitted": 7227,
      "Ġcumul": 7228,
      "ĠBlock": 7229,
      "Ġdiagrams": 7230,
      "van": 7231,
      "ĠBC": 7232,
      "ĠÏģi": 7233,
      "ï£º": 7234,
      "ĠNevertheless": 7235,
      "changed": 7236,
      "ĠSubsection": 7237,
      "Ġreads": 7238,
      "Ġarrival": 7239,
      "Ġlayers": 7240,
      "ĠÎ²j": 7241,
      "Ġbranches": 7242,
      "Ġ66": 7243,
      "Ġsorting": 7244,
      "Ġcarried": 7245,
      "conc": 7246,
      "Ġdescribing": 7247,
      "ĠPattern": 7248,
      "Ìģ,": 7249,
      "Ġsingleton": 7250,
      "ĠUp": 7251,
      "âĪĪ{": 7252,
      "Ġcancell": 7253,
      "Ġboolean": 7254,
      "Ġmoving": 7255,
      "ĠAsymptotic": 7256,
      "ium": 7257,
      "Ġappendix": 7258,
      "Ġkeys": 7259,
      "Ġ94": 7260,
      "Ak": 7261,
      "Ġht": 7262,
      "ĠÎ¾i": 7263,
      "Ġexhibit": 7264,
      "ĠHamming": 7265,
      "Ġtradeoff": 7266,
      "ĠEuler": 7267,
      "ĠHT": 7268,
      "Ġcandidates": 7269,
      "ĠUnfortunately": 7270,
      "ĠEfficient": 7271,
      "Ġinvok": 7272,
      "sibility": 7273,
      "ĠError": 7274,
      "Sub": 7275,
      "ĠFO": 7276,
      "NS": 7277,
      "bk": 7278,
      "ĠBP": 7279,
      "Ġgames": 7280,
      "anning": 7281,
      "Ġ1990": 7282,
      "ĠFast": 7283,
      "des": 7284,
      "Ġ(âĪĹ": 7285,
      "oto": 7286,
      "Ġallocated": 7287,
      "ĠTu": 7288,
      "ĠDir": 7289,
      "oration": 7290,
      "rency": 7291,
      "erson": 7292,
      "ARI": 7293,
      "reasing": 7294,
      "Ġdecompositions": 7295,
      "ĠObject": 7296,
      "ĠConstruction": 7297,
      "imal": 7298,
      "ĠÂłĊ": 7299,
      "ille": 7300,
      "Ġtuples": 7301,
      "ĠWeb": 7302,
      "Ġtreated": 7303,
      "Ġcorrection": 7304,
      "ĠPrinciples": 7305,
      "LL": 7306,
      "Ġformulated": 7307,
      "Ġchalleng": 7308,
      "::": 7309,
      "ĠRN": 7310,
      "gel": 7311,
      "Or": 7312,
      "ĠAG": 7313,
      "Ġenvironments": 7314,
      ")].": 7315,
      "Ġstreaming": 7316,
      "alue": 7317,
      "lligence": 7318,
      "Ġdelivery": 7319,
      "ĠKar": 7320,
      "diag": 7321,
      "ought": 7322,
      "ĠHerm": 7323,
      "Ġsyntactic": 7324,
      "Ġservers": 7325,
      "Ġroughly": 7326,
      "ĠEv": 7327,
      "neighb": 7328,
      "EX": 7329,
      "ĠDO": 7330,
      "ĠThomas": 7331,
      ")=": 7332,
      "Ġdivision": 7333,
      "Ġdj": 7334,
      "Ġrigid": 7335,
      "AMP": 7336,
      "Ġalignment": 7337,
      "Ġchallenge": 7338,
      "ðĿĳ¡": 7339,
      "Ġnd": 7340,
      "finition": 7341,
      "Ġeffectively": 7342,
      "ĠCC": 7343,
      "Ġeval": 7344,
      "Ġï£¾": 7345,
      "tope": 7346,
      "icon": 7347,
      "Ġinteractions": 7348,
      "ĠIk": 7349,
      "ĠLuc": 7350,
      "ĠImplementation": 7351,
      "Ġkin": 7352,
      "Ġisolated": 7353,
      "oin": 7354,
      "ĠLine": 7355,
      "range": 7356,
      "rup": 7357,
      "ĠPs": 7358,
      "ĠSections": 7359,
      "ropic": 7360,
      "rist": 7361,
      "{|": 7362,
      "Ġphases": 7363,
      "Ġemployed": 7364,
      "ĠTS": 7365,
      "Type": 7366,
      "ĠSIGPLAN": 7367,
      "ĠGro": 7368,
      "ilib": 7369,
      "kh": 7370,
      "Ġencode": 7371,
      "ĠHig": 7372,
      "Ġsolves": 7373,
      "ĠkM": 7374,
      "Ġdepicted": 7375,
      "Set": 7376,
      "Ġconjunction": 7377,
      "Ġfiber": 7378,
      "Ġpreserved": 7379,
      "ulate": 7380,
      "osh": 7381,
      "Ġrotation": 7382,
      "ĠSG": 7383,
      "Ġisometry": 7384,
      "tere": 7385,
      "Ġextending": 7386,
      "Ġunlike": 7387,
      "Ġdominated": 7388,
      "ancing": 7389,
      "ya": 7390,
      "ĠAppro": 7391,
      "âī¡": 7392,
      "ÏĢi": 7393,
      "Ġpieces": 7394,
      "Ġfusion": 7395,
      "oton": 7396,
      "ĠCommunication": 7397,
      "->": 7398,
      "Ġhit": 7399,
      "ĠLower": 7400,
      "ĠHand": 7401,
      "âĪŀ,": 7402,
      "Ġcause": 7403,
      "Ġ01": 7404,
      "Ġtreewidth": 7405,
      "ĠSimulation": 7406,
      "ĠGerman": 7407,
      "tized": 7408,
      "Ġmaterial": 7409,
      "Ġfaithful": 7410,
      "ĠPrograms": 7411,
      "Ġdans": 7412,
      "Ġcalculations": 7413,
      "ĠHan": 7414,
      "`,": 7415,
      "ĠWn": 7416,
      "iling": 7417,
      "Ġchallenging": 7418,
      "ada": 7419,
      "ĠIndex": 7420,
      "ĠGar": 7421,
      "Ġsummarized": 7422,
      "owski": 7423,
      "ĠÂ¹": 7424,
      "ita": 7425,
      "ĠâĬĩ": 7426,
      "ĠPSL": 7427,
      "Ġmanifolds": 7428,
      "Ġworld": 7429,
      "ashed": 7430,
      "Ġimplication": 7431,
      "ĠLaplacian": 7432,
      "chain": 7433,
      "Ġflag": 7434,
      "Ġgj": 7435,
      "Ġbackground": 7436,
      "For": 7437,
      "ster": 7438,
      "Ġseed": 7439,
      "stood": 7440,
      "Zn": 7441,
      "ĠConjecture": 7442,
      "Ġcer": 7443,
      "degenerate": 7444,
      "onent": 7445,
      "Ġ111": 7446,
      "imit": 7447,
      "Ġbeh": 7448,
      "Ġwin": 7449,
      "ĠGh": 7450,
      "Par": 7451,
      "TR": 7452,
      "Rd": 7453,
      "random": 7454,
      "Ġreachable": 7455,
      "ĠEC": 7456,
      "Ġseparated": 7457,
      "ĠNeural": 7458,
      "Ġft": 7459,
      "Fq": 7460,
      "Ġï£½": 7461,
      "Ġ|||": 7462,
      "umann": 7463,
      "Ġfrequencies": 7464,
      "Ġdv": 7465,
      "ximal": 7466,
      "DB": 7467,
      "izable": 7468,
      "sig": 7469,
      "Ġinvolve": 7470,
      "core": 7471,
      "ilibri": 7472,
      "Ġreceives": 7473,
      "queness": 7474,
      "Ġreductions": 7475,
      "Ġcomputable": 7476,
      "Ġsoundness": 7477,
      "fold": 7478,
      "arm": 7479,
      "Î±n": 7480,
      "specific": 7481,
      "Ġaccep": 7482,
      "1999": 7483,
      "amin": 7484,
      "ĠFormally": 7485,
      "wk": 7486,
      "Ġdivided": 7487,
      "ynchronous": 7488,
      "stant": 7489,
      "ĠCI": 7490,
      "Ġcoset": 7491,
      "Ġmonotonicity": 7492,
      "zz": 7493,
      "Ġhp": 7494,
      "add": 7495,
      "len": 7496,
      "irth": 7497,
      "formed": 7498,
      "ker": 7499,
      "Ġbudget": 7500,
      "Ġwish": 7501,
      "Ġcuts": 7502,
      "Ġing": 7503,
      "Ġprogrammer": 7504,
      "ĠMean": 7505,
      "ĠStruct": 7506,
      "ĠâĬĵ": 7507,
      "AA": 7508,
      "Ġreplacement": 7509,
      "possibly": 7510,
      "uri": 7511,
      "Ġconjugation": 7512,
      "itary": 7513,
      "ordan": 7514,
      "Ġsuccessfully": 7515,
      "Ġpointwise": 7516,
      "Ġclosest": 7517,
      "ĠNumer": 7518,
      "ĠÏĥj": 7519,
      "Ġopt": 7520,
      "Ġpour": 7521,
      "Ġacyclic": 7522,
      "approximate": 7523,
      "Ġradio": 7524,
      "Ġinitially": 7525,
      "Ġprotot": 7526,
      "Ġsensors": 7527,
      "ĠÏĥk": 7528,
      "Ġclaimed": 7529,
      "Ġapart": 7530,
      "Ad": 7531,
      "Ġchallenges": 7532,
      "PX": 7533,
      "Ġswitch": 7534,
      ")],": 7535,
      "Ġdependencies": 7536,
      "Ġmargin": 7537,
      "angled": 7538,
      "ĠÏĦn": 7539,
      "ono": 7540,
      "Ġpreprocessing": 7541,
      "Ġct": 7542,
      "celer": 7543,
      "ĠPerformance": 7544,
      "Ġestablishes": 7545,
      "ĠMany": 7546,
      "Ġdestination": 7547,
      "Ġregret": 7548,
      "EP": 7549,
      "Ġ67": 7550,
      "Ġadapted": 7551,
      "ĠSl": 7552,
      "Ġlatency": 7553,
      "world": 7554,
      "ĠAverage": 7555,
      "Ġcocompact": 7556,
      "Ġduality": 7557,
      "bes": 7558,
      "Ġ72": 7559,
      "List": 7560,
      "ĠAM": 7561,
      "Ġprocessed": 7562,
      "nyi": 7563,
      "bas": 7564,
      "Ġprofile": 7565,
      "ĠPrac": 7566,
      "del": 7567,
      "Ġinstant": 7568,
      "Ġcharacteristics": 7569,
      "ova": 7570,
      "ĠWrite": 7571,
      "rick": 7572,
      "ĠFS": 7573,
      "ĠRu": 7574,
      "ĠHaus": 7575,
      "ĠFk": 7576,
      "my": 7577,
      "Li": 7578,
      "entioned": 7579,
      "ĠCap": 7580,
      "ĠPreliminaries": 7581,
      "arxiv": 7582,
      "Ġaxis": 7583,
      "Ġdp": 7584,
      "Ġelect": 7585,
      "Ġap": 7586,
      "Ġrounding": 7587,
      "acket": 7588,
      "Ġconfir": 7589,
      "amber": 7590,
      "%)": 7591,
      "Ġsafety": 7592,
      "Ġ81": 7593,
      "dn": 7594,
      "Ġgave": 7595,
      "ders": 7596,
      "Ġpreserve": 7597,
      "ĠPf": 7598,
      "ĠËĻ": 7599,
      "requency": 7600,
      "ĠSemantics": 7601,
      "Ġmill": 7602,
      "ĠRich": 7603,
      "ĠSche": 7604,
      "avi": 7605,
      "une": 7606,
      "Ġpropos": 7607,
      "sch": 7608,
      "Ġrelational": 7609,
      "Ġunip": 7610,
      "ĠRobert": 7611,
      "plex": 7612,
      "Ġtriangles": 7613,
      "Ġdocument": 7614,
      "relation": 7615,
      "cal": 7616,
      "ĠAre": 7617,
      "comes": 7618,
      "ĠEp": 7619,
      "Ġconcave": 7620,
      "ï¬ģc": 7621,
      "ĠGraphs": 7622,
      "Dn": 7623,
      "dk": 7624,
      "Ġordinary": 7625,
      "gligible": 7626,
      "ĠdH": 7627,
      "ĠDT": 7628,
      "Ġï£¼": 7629,
      "Ġclock": 7630,
      "ĠPeter": 7631,
      "Ġcod": 7632,
      "Ġher": 7633,
      "Ġdifficulty": 7634,
      "ometries": 7635,
      "ĠâĪĨ.": 7636,
      "Ġ):": 7637,
      "Ġinitialization": 7638,
      "ĠGA": 7639,
      "Ġaspect": 7640,
      "first": 7641,
      "ura": 7642,
      "Ġune": 7643,
      "ĠÃł": 7644,
      "vised": 7645,
      "ĠEvalu": 7646,
      "ĠChannel": 7647,
      "Ġdescend": 7648,
      "BP": 7649,
      "PER": 7650,
      "ller": 7651,
      "ĠVan": 7652,
      "supp": 7653,
      "Ġdelete": 7654,
      "Ġadds": 7655,
      "ĠNotation": 7656,
      "ĠBin": 7657,
      "OW": 7658,
      "Wi": 7659,
      "Ġstands": 7660,
      "Ġfun": 7661,
      "Ġrefers": 7662,
      "Ġmainly": 7663,
      "Ġcollision": 7664,
      "ĠkAk": 7665,
      "ĠÂµk": 7666,
      "Ġsummand": 7667,
      "from": 7668,
      "gs": 7669,
      "Ġpointers": 7670,
      "Ġmolec": 7671,
      "Ġplatform": 7672,
      "Ġsuggested": 7673,
      "Ġelimination": 7674,
      "likelihood": 7675,
      "ingly": 7676,
      "ĠIF": 7677,
      "Ġhelpful": 7678,
      "dorff": 7679,
      "Ġ104": 7680,
      "Ġpolicies": 7681,
      "Ġadapt": 7682,
      "1998": 7683,
      "ĠGeom": 7684,
      ")âĢĵ(": 7685,
      "Ġmy": 7686,
      "aving": 7687,
      "Ġdiam": 7688,
      "enn": 7689,
      "Ġidentically": 7690,
      "ĠSR": 7691,
      "Ġlack": 7692,
      "ĠÎ²k": 7693,
      "viously": 7694,
      "Ġflows": 7695,
      "Ġâĸ³": 7696,
      "Ġdegener": 7697,
      "Ġcle": 7698,
      "multi": 7699,
      "ĠÎ¸k": 7700,
      "Ġbehind": 7701,
      "Ġisometric": 7702,
      "Ġvon": 7703,
      "Ġindicator": 7704,
      "ĠÑģ": 7705,
      "Ġappearing": 7706,
      "[|": 7707,
      "ĠÐ²": 7708,
      "Ġcenters": 7709,
      "ĠSequ": 7710,
      "NI": 7711,
      "ĠPD": 7712,
      "urning": 7713,
      "ĠQues": 7714,
      "ĠFR": 7715,
      "letion": 7716,
      "har": 7717,
      "Ġms": 7718,
      "ĠKol": 7719,
      "ewise": 7720,
      "fr": 7721,
      "ÑĮ": 7722,
      "Ġsix": 7723,
      "ashion": 7724,
      "Ġdigraph": 7725,
      "Ġplacement": 7726,
      "Ġ93": 7727,
      "Ġtravers": 7728,
      "ĠJohnson": 7729,
      "Îŀ": 7730,
      "structure": 7731,
      "ĠFP": 7732,
      "ĠAltern": 7733,
      "uctive": 7734,
      "Ġcovariates": 7735,
      "data": 7736,
      "ĠInference": 7737,
      "Ġcommonly": 7738,
      "Ġkinds": 7739,
      "Ġfreedom": 7740,
      "ube": 7741,
      "Ġdecay": 7742,
      "irable": 7743,
      "ĠTesting": 7744,
      "Ġ120": 7745,
      "Ns": 7746,
      "ĠBA": 7747,
      "ĠCB": 7748,
      "Ġfragment": 7749,
      "adow": 7750,
      "Ġdetermining": 7751,
      "sed": 7752,
      "Ġ{{": 7753,
      "âĮĬ": 7754,
      "Ġsubstitutions": 7755,
      "Ġconsideration": 7756,
      "loop": 7757,
      "Ġfourth": 7758,
      "Ġaxioms": 7759,
      "ĠGalois": 7760,
      "Cs": 7761,
      "hd": 7762,
      "Mi": 7763,
      "arrow": 7764,
      "akis": 7765,
      "Ġembeddings": 7766,
      "ĠHamilton": 7767,
      "Ġunbiased": 7768,
      "char": 7769,
      "ME": 7770,
      "ĠCU": 7771,
      "Ġ69": 7772,
      "Ġcoin": 7773,
      "riven": 7774,
      "Kn": 7775,
      "Ġfulfill": 7776,
      "Ġgcd": 7777,
      "Ġplaced": 7778,
      "Ġpreceding": 7779,
      "1996": 7780,
      "DPC": 7781,
      "ias": 7782,
      "ĠLE": 7783,
      "Ġcircular": 7784,
      "SU": 7785,
      "Ġapproximating": 7786,
      "ď,": 7787,
      "channel": 7788,
      "Ġconcerning": 7789,
      "Ġimplicitly": 7790,
      "Ġpolym": 7791,
      "Ġfiltering": 7792,
      "ĠIni": 7793,
      "BG": 7794,
      "ĠCD": 7795,
      "]-": 7796,
      "imod": 7797,
      "Ġstrength": 7798,
      "Ġfashion": 7799,
      "loc": 7800,
      "ĠAp": 7801,
      "unk": 7802,
      "Ġinserted": 7803,
      "ĠNL": 7804,
      "Ġsimplex": 7805,
      "ester": 7806,
      "Ġď,": 7807,
      "Ġ103": 7808,
      "conjug": 7809,
      "Ġidentifying": 7810,
      "ÑĢÐ°": 7811,
      "ĠEmp": 7812,
      "Ġlocated": 7813,
      "Ġletting": 7814,
      "Ġcolored": 7815,
      "Ġsomewhat": 7816,
      "âĸ": 7817,
      "ĠWilli": 7818,
      "Ġhyperplanes": 7819,
      "cover": 7820,
      "Ġcontinuation": 7821,
      "Ã¶": 7822,
      "ĠkÂµ": 7823,
      "ĠGF": 7824,
      "constrained": 7825,
      "Ġconser": 7826,
      "Ġparadig": 7827,
      "arent": 7828,
      "ĠTj": 7829,
      "Ġassemb": 7830,
      "Ġsubtyping": 7831,
      "ibility": 7832,
      "Ġplays": 7833,
      "ĠâĬ³": 7834,
      "yer": 7835,
      "Ġyou": 7836,
      "ĠFPT": 7837,
      "ĠAssumptions": 7838,
      "Ġvehic": 7839,
      "ĠDistribution": 7840,
      "ĠBir": 7841,
      "terex": 7842,
      "empt": 7843,
      "Ġpiece": 7844,
      "Ġpossibilities": 7845,
      "hs": 7846,
      "Ġtorus": 7847,
      "Ġbis": 7848,
      "Ġtuning": 7849,
      "Ġhj": 7850,
      "Ġnothing": 7851,
      "Int": 7852,
      "Ġnice": 7853,
      "ominal": 7854,
      "Ġevaluating": 7855,
      "Ġeigenvectors": 7856,
      "ĠReduction": 7857,
      "HA": 7858,
      "ogether": 7859,
      "ĠPaul": 7860,
      "ĠMk": 7861,
      "Ġevidence": 7862,
      "Ind": 7863,
      "Ġcomments": 7864,
      "nergy": 7865,
      "ĠDF": 7866,
      "Ġ68": 7867,
      "Ġ105": 7868,
      "dually": 7869,
      "arities": 7870,
      "ĠÖĴ": 7871,
      "ĠkQ": 7872,
      "Ġpast": 7873,
      "To": 7874,
      "ĠPB": 7875,
      "Ġēē": 7876,
      "Ġgroupoid": 7877,
      "âĨĳ": 7878,
      "ĠMaximum": 7879,
      "lapping": 7880,
      "Ġintersects": 7881,
      "Ġretrieval": 7882,
      "ĠpG": 7883,
      "âĹıâĹıâĹıâĹıâĹıâĹıâĹıâĹıâĹıâĹıâĹıâĹıâĹıâĹıâĹıâĹı": 7884,
      "Â¬": 7885,
      "gements": 7886,
      "Î´n": 7887,
      "sson": 7888,
      "while": 7889,
      "ĠCombinatorial": 7890,
      "ĠâĢĭ": 7891,
      "Ġreveal": 7892,
      "Ġscales": 7893,
      "then": 7894,
      "ĠInitial": 7895,
      "Ġmac": 7896,
      "similar": 7897,
      "Ġold": 7898,
      "pdf": 7899,
      "pair": 7900,
      "Ġ96": 7901,
      "Ġprecoding": 7902,
      "Ġsuggest": 7903,
      "ender": 7904,
      "ODA": 7905,
      "ĠArtin": 7906,
      "reement": 7907,
      "Ġchanged": 7908,
      "avesdro": 7909,
      "Ġquickly": 7910,
      "Ġpriors": 7911,
      "Ġyes": 7912,
      "Ġ73": 7913,
      "Ġminimizes": 7914,
      "Ġik": 7915,
      "ĠRt": 7916,
      "Ġanalytic": 7917,
      "ĠUk": 7918,
      "Ġproceeds": 7919,
      "Ġtempl": 7920,
      "Ġcodewords": 7921,
      "ï£Ń": 7922,
      "âĨĲ": 7923,
      "SC": 7924,
      "ĠSDP": 7925,
      "âĢĭ": 7926,
      "ĠDk": 7927,
      "ĠFoundation": 7928,
      "orov": 7929,
      "ĠkT": 7930,
      "Ġanalyzing": 7931,
      "Min": 7932,
      "nov": 7933,
      "Ġbisim": 7934,
      "Ġste": 7935,
      "Ġunderstood": 7936,
      "Ġpreference": 7937,
      "ĠBSs": 7938,
      "ĠTar": 7939,
      "ĠSan": 7940,
      "mitted": 7941,
      "ĠâĨĴâĪŀ": 7942,
      "1997": 7943,
      "Ġmaximizing": 7944,
      "ENDIX": 7945,
      "Ġą": 7946,
      "Ġnorms": 7947,
      "Ġmotion": 7948,
      "Ġrecomm": 7949,
      "Ġcompleted": 7950,
      "ymmetric": 7951,
      "onormal": 7952,
      "Ġenable": 7953,
      "Ġdz": 7954,
      "Ġtractable": 7955,
      "ï£¯": 7956,
      "ĠYt": 7957,
      "Ġdisk": 7958,
      "Ġhardness": 7959,
      "Ġsharp": 7960,
      "ĠCompute": 7961,
      "âĬķ": 7962,
      "ĠAndrew": 7963,
      "ĠÄİ": 7964,
      "Ġsurprising": 7965,
      "ĠNamely": 7966,
      "Ġincur": 7967,
      "Ġmodell": 7968,
      "Ġequilibri": 7969,
      "entific": 7970,
      "ĠKlein": 7971,
      "ĠParis": 7972,
      "Ġ)))": 7973,
      "ĠCart": 7974,
      "Ġselecting": 7975,
      "rt": 7976,
      "Ġprofinite": 7977,
      "Ġhull": 7978,
      "Ġlasso": 7979,
      "Ġacqu": 7980,
      "Ġarrive": 7981,
      "ĠWil": 7982,
      "Ġmethodology": 7983,
      "Ġpointed": 7984,
      "Ġhomology": 7985,
      "Ġmutually": 7986,
      "ĠVII": 7987,
      "Ġzj": 7988,
      "Ġcounts": 7989,
      "ĠProblems": 7990,
      "ighted": 7991,
      "Ġranges": 7992,
      ")},": 7993,
      "such": 7994,
      "ĠRepresent": 7995,
      "Aut": 7996,
      "Cor": 7997,
      "good": 7998,
      "true": 7999,
      "ĠReview": 8000,
      "haps": 8001,
      "xs": 8002,
      "Ġdiscussions": 8003,
      "Ġconvexity": 8004,
      "ĠAlg": 8005,
      "ĠÎµi": 8006,
      "GA": 8007,
      "Ġareas": 8008,
      "ĠÐ¸": 8009,
      "BER": 8010,
      "Script": 8011,
      "SM": 8012,
      "ĠâĬĻ": 8013,
      "ĠËĺ": 8014,
      "Ġphr": 8015,
      "Ġfilters": 8016,
      "Ġharv": 8017,
      "ĠColl": 8018,
      "Ġpolytope": 8019,
      "Ġmatter": 8020,
      "Ġ:âĢľ": 8021,
      "Ġstopping": 8022,
      "TA": 8023,
      "ĠJordan": 8024,
      "ĠZk": 8025,
      "Ġqk": 8026,
      "ĠÎ¸j": 8027,
      "ĠLike": 8028,
      "idelberg": 8029,
      "uni": 8030,
      "ectral": 8031,
      "Ġslots": 8032,
      "Ġdupl": 8033,
      "Ġfewer": 8034,
      "Ġsystematic": 8035,
      "ĠParameter": 8036,
      "ĠBanach": 8037,
      "Ġ85": 8038,
      "BB": 8039,
      "ppings": 8040,
      "Ġassess": 8041,
      "Ġderivations": 8042,
      "ERENCES": 8043,
      "ĠLag": 8044,
      "ĠÏĨi": 8045,
      "cyclic": 8046,
      "Ġtransport": 8047,
      "ails": 8048,
      "Ġconcatenation": 8049,
      "ĠBal": 8050,
      "ĠConn": 8051,
      "Ġfaces": 8052,
      "ĠTypes": 8053,
      "cus": 8054,
      "Ġsending": 8055,
      "Ġjointly": 8056,
      "oS": 8057,
      "Ġ.)": 8058,
      "Ġunipotent": 8059,
      "ĠVk": 8060,
      "Ġterminology": 8061,
      "Ġspeaking": 8062,
      "ĠZhou": 8063,
      "algebras": 8064,
      "ĠLow": 8065,
      "Ġcloser": 8066,
      "Ġpq": 8067,
      "Ġconnect": 8068,
      "Ġexecuting": 8069,
      "atics": 8070,
      "etch": 8071,
      "rins": 8072,
      "ellow": 8073,
      "ystem": 8074,
      "Ġtion": 8075,
      "Ġrequiring": 8076,
      "Ġencoun": 8077,
      "Ġsmoothness": 8078,
      "ĠCoun": 8079,
      "Ġnaive": 8080,
      "Ġelliptic": 8081,
      "Ġheterogeneous": 8082,
      "sparse": 8083,
      "istence": 8084,
      "asibility": 8085,
      "iser": 8086,
      "ĠLetters": 8087,
      "Ġnormality": 8088,
      "ĠLk": 8089,
      "xx": 8090,
      "ĠEL": 8091,
      "ĠJe": 8092,
      "Ã¸": 8093,
      "ĠIi": 8094,
      "Ġdiscr": 8095,
      "Ġgains": 8096,
      "ĠChrist": 8097,
      "ĠImpro": 8098,
      "Ġbases": 8099,
      "Ġfold": 8100,
      "Ġdynamical": 8101,
      "ĠÎ²n": 8102,
      "Î¥": 8103,
      "eless": 8104,
      "gent": 8105,
      "ĠShannon": 8106,
      "monic": 8107,
      "Ġtrig": 8108,
      "program": 8109,
      "Ġpv": 8110,
      "RODU": 8111,
      "ĠSchool": 8112,
      "ĠPat": 8113,
      "ijk": 8114,
      "Ġlongest": 8115,
      "Out": 8116,
      "iao": 8117,
      "Ġoutperforms": 8118,
      "tan": 8119,
      "Ġmotivated": 8120,
      "Ġintended": 8121,
      "Ġillustration": 8122,
      "Ġmorphisms": 8123,
      "Ġrealized": 8124,
      "umar": 8125,
      "ĠBro": 8126,
      "ĠLy": 8127,
      "otropic": 8128,
      "Ġ71": 8129,
      "Ġimplementing": 8130,
      "Ġpanel": 8131,
      "Ġcm": 8132,
      "Ġpackage": 8133,
      "Ġintegrated": 8134,
      "ĠOctober": 8135,
      "ĠTO": 8136,
      "Ġorthonormal": 8137,
      "____": 8138,
      "ANG": 8139,
      "ĠSW": 8140,
      "Ġquantization": 8141,
      "ĠRI": 8142,
      "Ġexplan": 8143,
      "ĠIT": 8144,
      "ĠIter": 8145,
      "Ġqq": 8146,
      "rc": 8147,
      "Ġoutl": 8148,
      "Ġoutcomes": 8149,
      "Ġprimes": 8150,
      "ĠSubstit": 8151,
      "Ġpurely": 8152,
      "Ġperturbation": 8153,
      "ours": 8154,
      "Ġkm": 8155,
      "romov": 8156,
      "ĠDaniel": 8157,
      "Ġ600": 8158,
      "ipher": 8159,
      "Ġpartitioned": 8160,
      "Ġeavesdro": 8161,
      "Ġhandling": 8162,
      "ielding": 8163,
      "Ġobviously": 8164,
      "Ġ77": 8165,
      "Ġassociation": 8166,
      "Ġconditioned": 8167,
      "ĠBER": 8168,
      "Ġunde": 8169,
      "ĠGermany": 8170,
      "ĠUEs": 8171,
      "but": 8172,
      "Ġserve": 8173,
      "mal": 8174,
      "Ġmatchings": 8175,
      "Ġpeak": 8176,
      "Ġthereby": 8177,
      "ĠkÎ£": 8178,
      "Ġdisj": 8179,
      "ĠNode": 8180,
      "Ġdiscrimin": 8181,
      "ĠYj": 8182,
      "idefinite": 8183,
      "Ġachieving": 8184,
      "ĠBru": 8185,
      "Ġmodulation": 8186,
      "ĠCheck": 8187,
      "ĠEH": 8188,
      "Ġshap": 8189,
      "ĠAssociation": 8190,
      "enna": 8191,
      "Ġdemonstrated": 8192,
      "Ġpxq": 8193,
      "ĠConstraint": 8194,
      "Ġtested": 8195,
      "ĠRobust": 8196,
      "Ġtoken": 8197,
      "ustri": 8198,
      "Ġhomomorphisms": 8199,
      "pq": 8200,
      "ĠEquival": 8201,
      "veloper": 8202,
      "ĠAnal": 8203,
      "ĠStab": 8204,
      "expression": 8205,
      "ĠRay": 8206,
      "Ġearly": 8207,
      "currency": 8208,
      "ĠSun": 8209,
      "Ġobtains": 8210,
      "cycle": 8211,
      "DC": 8212,
      "Ġdiversity": 8213,
      "Ġscores": 8214,
      "disjoint": 8215,
      "ĠSeptember": 8216,
      "ĠLT": 8217,
      "ĠMer": 8218,
      "Ġcloud": 8219,
      "ĠCall": 8220,
      "ĠKim": 8221,
      "ATE": 8222,
      "Ġdictionary": 8223,
      "Ġhv": 8224,
      "Ġredundant": 8225,
      "apsack": 8226,
      "Ġsure": 8227,
      "Ġuns": 8228,
      "Ġscience": 8229,
      "ĠFA": 8230,
      "Ġpiv": 8231,
      "Ġoptimize": 8232,
      "Ġcontrolled": 8233,
      "Ġvalidity": 8234,
      "Ġ102": 8235,
      "Ġdominant": 8236,
      "Ġenumeration": 8237,
      "ox": 8238,
      "alg": 8239,
      "ĠâĪĿ": 8240,
      "ĠRL": 8241,
      "Ġbook": 8242,
      "ĠMM": 8243,
      "Ġlisted": 8244,
      "respectively": 8245,
      "ĠpÎ¸": 8246,
      "Ġkh": 8247,
      "ĠUpd": 8248,
      "ĠKeywords": 8249,
      "ĠPan": 8250,
      "ĠSmall": 8251,
      "Ġrt": 8252,
      "Ġadopt": 8253,
      "Ġdoing": 8254,
      "ĠAcadem": 8255,
      "ylog": 8256,
      "DT": 8257,
      "Ġpiecewise": 8258,
      "ĠÖĴâĨĴ": 8259,
      "Ps": 8260,
      "output": 8261,
      "olf": 8262,
      "Ġthanks": 8263,
      "ĠBack": 8264,
      "Ġ78": 8265,
      "narXiv": 8266,
      "ĠQuestion": 8267,
      "Ġassumes": 8268,
      "978": 8269,
      "ĠCm": 8270,
      "ĠFisher": 8271,
      "ĠReport": 8272,
      "ĠHausdorff": 8273,
      "ICAL": 8274,
      "ĠInequ": 8275,
      "Ġtraversal": 8276,
      "Ġtm": 8277,
      "terms": 8278,
      "Ġcaptures": 8279,
      "ĠâīĢ": 8280,
      "Ġobserving": 8281,
      "Ġ`=": 8282,
      "Ġmicro": 8283,
      "ĠEÎ¸": 8284,
      "ĠDM": 8285,
      "Ġalternatives": 8286,
      "Ġrepresentatives": 8287,
      "ĠAdd": 8288,
      "OU": 8289,
      "Ġobj": 8290,
      "Ġsubpath": 8291,
      "();": 8292,
      "Ġ)[": 8293,
      "Ġnegligible": 8294,
      "ĠNeumann": 8295,
      "He": 8296,
      "Ġrings": 8297,
      "Ġyielding": 8298,
      "Ġflexible": 8299,
      "Ġprocessors": 8300,
      "ĠIntelligence": 8301,
      "Ġsurfaces": 8302,
      "abilistic": 8303,
      "Ġrobustness": 8304,
      "RODUCTION": 8305,
      "Ġur": 8306,
      "ĠBt": 8307,
      "Ġbaseline": 8308,
      "Ġreading": 8309,
      "ĠSearch": 8310,
      "BN": 8311,
      "Ġvarieties": 8312,
      "pril": 8313,
      "Ġmajority": 8314,
      "This": 8315,
      "ĠDr": 8316,
      "ĠPCA": 8317,
      "ĠGeometry": 8318,
      "Ġâĭħ": 8319,
      "tre": 8320,
      "ðĿĳĴ": 8321,
      "Ġranking": 8322,
      "Ġexamine": 8323,
      "Ġnamed": 8324,
      "ĠâĪĨ)": 8325,
      "Ġcooperative": 8326,
      "ĠIma": 8327,
      "thing": 8328,
      "ĠGT": 8329,
      "Ġboundaries": 8330,
      "ĠdX": 8331,
      "ĠIL": 8332,
      "Ġtrajectory": 8333,
      "ĠOx": 8334,
      "ĠPython": 8335,
      "Ġmappings": 8336,
      "Ġcp": 8337,
      "Ġcomparable": 8338,
      "Ġnormalization": 8339,
      "ĠVertex": 8340,
      "Ġpreliminary": 8341,
      "vability": 8342,
      "ĠmmWave": 8343,
      "At": 8344,
      "ends": 8345,
      "urated": 8346,
      "Ġattempt": 8347,
      "Ġbenefit": 8348,
      "ls": 8349,
      "inf": 8350,
      "Ġ91": 8351,
      "agraph": 8352,
      "Ġincremental": 8353,
      "Ni": 8354,
      "Ġgr": 8355,
      "abilities": 8356,
      "Ġcounterex": 8357,
      "ï¬ģne": 8358,
      "ATIONS": 8359,
      "iteness": 8360,
      "ĠkB": 8361,
      "Ġreceivers": 8362,
      "Ġstyle": 8363,
      "Î±k": 8364,
      "Ġmultiplicity": 8365,
      "Ġskip": 8366,
      "Ġworse": 8367,
      "nam": 8368,
      "thread": 8369,
      "ĠTH": 8370,
      "ĠCt": 8371,
      "Ġimplying": 8372,
      "Ġwavelet": 8373,
      "besgue": 8374,
      "Ġsensitivity": 8375,
      "Ġemplo": 8376,
      "Ġerasure": 8377,
      "Ġclassic": 8378,
      "factor": 8379,
      "ĠEff": 8380,
      "Ġthemselves": 8381,
      "Ġoptimizations": 8382,
      "Table": 8383,
      "Ġancestor": 8384,
      "ĠJn": 8385,
      "Ġpy": 8386,
      "ĠPred": 8387,
      "creasing": 8388,
      "ullback": 8389,
      "ĠðĿĽ": 8390,
      "Ġnt": 8391,
      "ĠTP": 8392,
      "Ġcoherence": 8393,
      "ĠHeidelberg": 8394,
      "Ġaffected": 8395,
      "ĠFrance": 8396,
      "tier": 8397,
      "ĠGromov": 8398,
      "orementioned": 8399,
      "GS": 8400,
      "ĠMic": 8401,
      "ĠDef": 8402,
      "Ġ++": 8403,
      "ompson": 8404,
      "Âµi": 8405,
      "Ġdiï¬Ģ": 8406,
      "vo": 8407,
      "Ġsink": 8408,
      "Ġeditor": 8409,
      "Ġoccurring": 8410,
      "Ġprint": 8411,
      "ĠCy": 8412,
      "ĠGI": 8413,
      "Ġ250": 8414,
      "Ġ](": 8415,
      "onym": 8416,
      "tiveness": 8417,
      "tingale": 8418,
      "hyper": 8419,
      "Ì§": 8420,
      "TH": 8421,
      "lder": 8422,
      "Ġbt": 8423,
      "ĠMIT": 8424,
      "Ġaforementioned": 8425,
      "ilter": 8426,
      "ĠSr": 8427,
      "Ġ84": 8428,
      "Ġrepeatedly": 8429,
      "Qu": 8430,
      "sequences": 8431,
      "âĢĺ": 8432,
      "Ġ74": 8433,
      "SAT": 8434,
      "ĠâĻ¯": 8435,
      "vature": 8436,
      "};": 8437,
      "ĠpA": 8438,
      "Ġ<:": 8439,
      "Ġhandled": 8440,
      "oli": 8441,
      "Ġ97": 8442,
      "Ġassociate": 8443,
      "ethe": 8444,
      "ĠCost": 8445,
      "Ġactivity": 8446,
      "Ġ98": 8447,
      "equivariant": 8448,
      "Ġextremely": 8449,
      "dim": 8450,
      "ĠÎĵi": 8451,
      "Ġattributes": 8452,
      "Ġuniqueness": 8453,
      "ĠPu": 8454,
      "Î»k": 8455,
      "Ġcreates": 8456,
      "Ġ76": 8457,
      "Ġ92": 8458,
      "ĠEnt": 8459,
      "cost": 8460,
      "Ġterminate": 8461,
      "ĠChern": 8462,
      "bb": 8463,
      "ĠÎ·i": 8464,
      "remum": 8465,
      "Ġĝ": 8466,
      "Ġ1989": 8467,
      "Ġinspired": 8468,
      "Ġfreely": 8469,
      "ĠSteiner": 8470,
      "ga": 8471,
      "pid": 8472,
      "ĠHj": 8473,
      "Ġformat": 8474,
      "Ġgadget": 8475,
      "Ã¼": 8476,
      "error": 8477,
      "liers": 8478,
      "ĠTow": 8479,
      "period": 8480,
      "rehen": 8481,
      "ĠRD": 8482,
      "ĠBesides": 8483,
      "levant": 8484,
      "Ġstatus": 8485,
      "raries": 8486,
      "ĠIp": 8487,
      "ĠGHz": 8488,
      "ĠÏĪi": 8489,
      "Ġinductively": 8490,
      "Online": 8491,
      "Ġsummarize": 8492,
      "Ġleak": 8493,
      "Ġ256": 8494,
      "ĠSpace": 8495,
      "pj": 8496,
      "ission": 8497,
      "Ġgenus": 8498,
      "ĠLarge": 8499,
      "ĠÏħ": 8500,
      "Ġ83": 8501,
      "Ġreadily": 8502,
      "Ġimprovements": 8503,
      "zen": 8504,
      "ĠNn": 8505,
      "ĠAlt": 8506,
      "cm": 8507,
      "Ġfav": 8508,
      "Ġseconds": 8509,
      "acity": 8510,
      "ĠLaplace": 8511,
      "ĠEconometric": 8512,
      "ĠSample": 8513,
      "ĠJacob": 8514,
      "Ġ87": 8515,
      "Ġattemp": 8516,
      "Ġbelonging": 8517,
      "nds": 8518,
      "ĠHy": 8519,
      "ĠIrr": 8520,
      "orter": 8521,
      "ĠRiemannian": 8522,
      "ĠTre": 8523,
      "Definition": 8524,
      "ĠVis": 8525,
      "ensen": 8526,
      "Ġcas": 8527,
      "osp": 8528,
      "Ġut": 8529,
      "Ġchamber": 8530,
      "Ġqj": 8531,
      "Ġdynamically": 8532,
      "note": 8533,
      "Ġunre": 8534,
      "Ġyt": 8535,
      "ĠIdenti": 8536,
      "Ġxq": 8537,
      "driven": 8538,
      "pta": 8539,
      "Ġignore": 8540,
      "Ġservices": 8541,
      "ĠâĨĶ": 8542,
      "port": 8543,
      "Ġsubtrees": 8544,
      "ĠHop": 8545,
      "Ġ79": 8546,
      "SR": 8547,
      "utation": 8548,
      "ĠLebesgue": 8549,
      "LA": 8550,
      "Ġoccup": 8551,
      "ĠSH": 8552,
      "Ġintern": 8553,
      "zh": 8554,
      "Ġvide": 8555,
      "Ġlinked": 8556,
      "ĠRus": 8557,
      "Ġrelaxed": 8558,
      "ĠâĮī": 8559,
      "ĠRecently": 8560,
      "ĠFram": 8561,
      "Ġtang": 8562,
      "umb": 8563,
      "ĠDI": 8564,
      "Ġtruncated": 8565,
      "Ġbalance": 8566,
      "Ġemer": 8567,
      "Ġencoder": 8568,
      "irectional": 8569,
      "Ġhope": 8570,
      "]}": 8571,
      "ï¸": 8572,
      "Ġsupremum": 8573,
      "Xs": 8574,
      "ĠApril": 8575,
      "Ġgeneralizes": 8576,
      "any": 8577,
      "Ġcontents": 8578,
      "ĠNF": 8579,
      "ĠShe": 8580,
      "ilit": 8581,
      "ĠLett": 8582,
      "vol": 8583,
      "ĠGold": 8584,
      "feasible": 8585,
      "cedure": 8586,
      "elle": 8587,
      "ĠObviously": 8588,
      "dl": 8589,
      "Ġqual": 8590,
      "Ġneighbourhood": 8591,
      "simple": 8592,
      "TING": 8593,
      "Ġaddresses": 8594,
      "ĠStructure": 8595,
      "dz": 8596,
      "ĠÎ²b": 8597,
      "Ã¡": 8598,
      "Ġ89": 8599,
      "Ste": 8600,
      "Ac": 8601,
      "ĠPhil": 8602,
      "Ġreaches": 8603,
      "Ġcommute": 8604,
      "ĠTri": 8605,
      "Ġparagraph": 8606,
      "ĠPhD": 8607,
      "ĠGreedy": 8608,
      "Ġfm": 8609,
      "Ġdetected": 8610,
      "aux": 8611,
      "ĠRP": 8612,
      "Ġdisconnected": 8613,
      "Su": 8614,
      "ĠApr": 8615,
      "Ġsci": 8616,
      "Ġdrawing": 8617,
      "ĠTx": 8618,
      "ivision": 8619,
      "Ġchooses": 8620,
      "itch": 8621,
      "Ġconference": 8622,
      "SIAM": 8623,
      "ĠVj": 8624,
      "ĠWeyl": 8625,
      "Ġparsing": 8626,
      "Ġentirely": 8627,
      "Ġdeleted": 8628,
      "leg": 8629,
      "ĠkH": 8630,
      "ĠQk": 8631,
      "model": 8632,
      "vn": 8633,
      "Ġlk": 8634,
      "Ġdiscard": 8635,
      "Ġ106": 8636,
      "Ġfr": 8637,
      "Ġstudying": 8638,
      "ĠUniform": 8639,
      "Ġbug": 8640,
      "Ġparticle": 8641,
      "Ġnarrow": 8642,
      "Ġtoler": 8643,
      "ĠWell": 8644,
      "Ġunification": 8645,
      "ĠLast": 8646,
      "ĠBh": 8647,
      "pc": 8648,
      "Ġroutine": 8649,
      "Ġcs": 8650,
      "Ġdecode": 8651,
      "Ġiteratively": 8652,
      "Ġlowest": 8653,
      "Ġconditioning": 8654,
      "Ġconflict": 8655,
      "ĠDer": 8656,
      "ĠKe": 8657,
      "Ġgh": 8658,
      "ovari": 8659,
      "Ġendow": 8660,
      "Ġassigns": 8661,
      "Es": 8662,
      "abling": 8663,
      "ĠString": 8664,
      "osure": 8665,
      "Ġil": 8666,
      "ĠSF": 8667,
      "ĠÃķ": 8668,
      "Ġ`,": 8669,
      "ustering": 8670,
      "Ġengine": 8671,
      "Ġhf": 8672,
      "ĠKer": 8673,
      "Ġhuman": 8674,
      "Ġanalogue": 8675,
      "Ġnominal": 8676,
      "Ġdeï¬ģned": 8677,
      "Ġduration": 8678,
      "Ġtransforms": 8679,
      "Ġpasses": 8680,
      "Ġheuristics": 8681,
      "def": 8682,
      "Ġbucket": 8683,
      "Ġzer": 8684,
      "NP": 8685,
      "hr": 8686,
      "Ġexhaus": 8687,
      "timate": 8688,
      "Ġ|âĪĴ": 8689,
      "ĠHer": 8690,
      "Ġpromis": 8691,
      "fits": 8692,
      "ĠBell": 8693,
      "nian": 8694,
      "onom": 8695,
      "ĠHE": 8696,
      "Ġdominating": 8697,
      "Ġcancellation": 8698,
      "iler": 8699,
      "ĠHuang": 8700,
      "Î¸k": 8701,
      "Ġvaluation": 8702,
      "Ġcliques": 8703,
      "Ġmembers": 8704,
      "ĠSAT": 8705,
      "ĠCa": 8706,
      "ĠIo": 8707,
      "Ġlooking": 8708,
      "Ġoffer": 8709,
      "ĠIA": 8710,
      "ĠAugust": 8711,
      "âĢ¦": 8712,
      "ĠSymb": 8713,
      "ĠNI": 8714,
      "Ġbacktr": 8715,
      "Ġbackward": 8716,
      "positive": 8717,
      "Ġâīª": 8718,
      "Ġprecondition": 8719,
      "Ġ|/": 8720,
      "Ġgoals": 8721,
      "Ġreconstruct": 8722,
      "|/": 8723,
      "open": 8724,
      "Ġadaptation": 8725,
      "Ġnj": 8726,
      "Ġcompr": 8727,
      "Ġdiscovery": 8728,
      "only": 8729,
      "Ġ[]": 8730,
      "Î³n": 8731,
      "chet": 8732,
      "ĠEf": 8733,
      "ĠDem": 8734,
      "Ġplots": 8735,
      "ĠApplication": 8736,
      "Ġasynchronous": 8737,
      "Ġunchanged": 8738,
      "Ġdiffers": 8739,
      "Ġlocality": 8740,
      "rich": 8741,
      "Ġsimulate": 8742,
      "Ġadopted": 8743,
      "ref": 8744,
      "ĠAlgebraic": 8745,
      "Ġage": 8746,
      "ĠMil": 8747,
      "ĠTrue": 8748,
      "Ġ1987": 8749,
      "Ġ110": 8750,
      "Ġconsequently": 8751,
      "plan": 8752,
      "Ġ\\{": 8753,
      "Ġ=>": 8754,
      "ĠSparse": 8755,
      "Ġidempotent": 8756,
      "ĠTest": 8757,
      "Ġdot": 8758,
      "hib": 8759,
      "ðĿĹ": 8760,
      "Ġformulate": 8761,
      "Proposition": 8762,
      "crib": 8763,
      "imeter": 8764,
      "Ġassertions": 8765,
      "ĠâĨĴâĪĹ": 8766,
      "123": 8767,
      "Ġlifting": 8768,
      "Ġcumulative": 8769,
      "after": 8770,
      "Ġlaws": 8771,
      "Ġattribute": 8772,
      "Ġcoherent": 8773,
      "Ġrecon": 8774,
      "vin": 8775,
      "Ġphenomenon": 8776,
      "ĠSetting": 8777,
      "ĠMal": 8778,
      "ĠMac": 8779,
      "Vn": 8780,
      "ĠFormal": 8781,
      "ĠHamiltonian": 8782,
      "Ġcompactly": 8783,
      "Ġsoft": 8784,
      "Ġconcerned": 8785,
      "ĠâĢ°": 8786,
      "1995": 8787,
      "Ġmonoids": 8788,
      "ĠhA": 8789,
      "Ġannotations": 8790,
      "See": 8791,
      "ÌĤ.": 8792,
      "Ġtravel": 8793,
      "Ġdigital": 8794,
      "ĠSam": 8795,
      "ĠNumerical": 8796,
      "Note": 8797,
      "tative": 8798,
      "(\"": 8799,
      "SIT": 8800,
      "Ð·": 8801,
      "ĠVC": 8802,
      "ĠRj": 8803,
      "ĠBounds": 8804,
      "ĠClassification": 8805,
      "ï¿½ï¿½ï¿½ï¿½ï¿½ï¿½ï¿½ï¿½": 8806,
      "Ġimproving": 8807,
      "Ġframes": 8808,
      "lk": 8809,
      "ĠGen": 8810,
      "Ġanalytical": 8811,
      "oph": 8812,
      "Ġpolyg": 8813,
      "Ġbinomial": 8814,
      "500": 8815,
      "IZ": 8816,
      "Ġintensity": 8817,
      "Is": 8818,
      "ĠOpt": 8819,
      "Ġmodes": 8820,
      "Ġadditionally": 8821,
      "Ġslice": 8822,
      "ectives": 8823,
      "ghts": 8824,
      "Ġoperating": 8825,
      "comm": 8826,
      "Ġhost": 8827,
      "cp": 8828,
      "tail": 8829,
      "ĠPd": 8830,
      "Ġdivisible": 8831,
      "ĠMu": 8832,
      "Ġsubro": 8833,
      "Ġsplits": 8834,
      "Ġsemidefinite": 8835,
      "Mn": 8836,
      "ĠPure": 8837,
      "ĠQU": 8838,
      "Ġthought": 8839,
      "Î»n": 8840,
      "Ġplayers": 8841,
      "ĠâŁ©": 8842,
      "ĠNA": 8843,
      "Ġplaces": 8844,
      "Ġcomposite": 8845,
      "Ġmaintaining": 8846,
      "Ġsimultaneous": 8847,
      "ĠGC": 8848,
      "Ġshadow": 8849,
      "ĠRub": 8850,
      "111": 8851,
      "RC": 8852,
      "ordered": 8853,
      "amination": 8854,
      "product": 8855,
      "Ġcontinuously": 8856,
      "ersh": 8857,
      "ĠHyper": 8858,
      "ĠRC": 8859,
      "ĠRef": 8860,
      "Ġdesirable": 8861,
      "Ġinterpreter": 8862,
      "ĠQuanti": 8863,
      "Ġtranslated": 8864,
      "Ġhs": 8865,
      "ĠRy": 8866,
      "Ġ|âĪĨ": 8867,
      "Ġmodern": 8868,
      "Ġmotivation": 8869,
      "ĠEm": 8870,
      "concave": 8871,
      "ĠFigures": 8872,
      "sche": 8873,
      "Ġcompiled": 8874,
      "Ġappend": 8875,
      "ĠFlow": 8876,
      "Ġlibraries": 8877,
      "Ġadvantages": 8878,
      "Ġcollected": 8879,
      "ĠZj": 8880,
      "Ġexploration": 8881,
      "ara": 8882,
      "sensitive": 8883,
      "ĠGrant": 8884,
      "Ġacceler": 8885,
      "Ġrever": 8886,
      "Ġvoid": 8887,
      "Ġfunctionals": 8888,
      "ðĿĳł": 8889,
      "Ġreliability": 8890,
      "Ġrewritten": 8891,
      "ĠMy": 8892,
      "Ġcontrary": 8893,
      "ĠRev": 8894,
      "dual": 8895,
      "Dec": 8896,
      "Ġarising": 8897,
      "Ġspeedup": 8898,
      "ĠUser": 8899,
      "Ġdenoting": 8900,
      "ymptotics": 8901,
      "ĠTA": 8902,
      "jee": 8903,
      "uer": 8904,
      "Ġprimal": 8905,
      "Ġbundle": 8906,
      "mise": 8907,
      "Ġcrossing": 8908,
      "OB": 8909,
      "Fig": 8910,
      "Ġgate": 8911,
      "ĠpS": 8912,
      "Ġconduc": 8913,
      "rinsic": 8914,
      "pers": 8915,
      "Ġscaled": 8916,
      "ĠStand": 8917,
      "ĠÎ¸n": 8918,
      "Ġcurvature": 8919,
      "]|": 8920,
      "Ġdeveloper": 8921,
      "005": 8922,
      "Ġxp": 8923,
      "Ġpriori": 8924,
      "ori": 8925,
      "Ġray": 8926,
      "Ġaccepted": 8927,
      "Ġamplit": 8928,
      "ĠTb": 8929,
      "Ġ[|": 8930,
      "Ġky": 8931,
      "Ġphylog": 8932,
      "Ġseparating": 8933,
      "RIC": 8934,
      "sz": 8935,
      "ĠÎĵn": 8936,
      "Sm": 8937,
      "Ġsolvers": 8938,
      "loss": 8939,
      "Ġminimizer": 8940,
      "ĠStrong": 8941,
      "Mod": 8942,
      "Ġpb": 8943,
      "independent": 8944,
      "ĠIll": 8945,
      "Ġexpensive": 8946,
      "Ġfocused": 8947,
      "ĠNt": 8948,
      "ĠhX": 8949,
      "ĠSimple": 8950,
      "Ġ(âĪĢ": 8951,
      "ĠEN": 8952,
      "Ġtherein": 8953,
      "Ġratios": 8954,
      "specified": 8955,
      "ĠDj": 8956,
      "ĠOnline": 8957,
      "Ġeffort": 8958,
      "ĠSecurity": 8959,
      "arri": 8960,
      "Ġsequel": 8961,
      "clusive": 8962,
      "ae": 8963,
      "Ġfb": 8964,
      "Ġasymmetric": 8965,
      "optim": 8966,
      "consistent": 8967,
      "ĠBL": 8968,
      "ĠHol": 8969,
      "Ġdeï¬ģnition": 8970,
      "ĠOxford": 8971,
      "rated": 8972,
      "ĠâĪĴâĪĴâĨĴ": 8973,
      ")|.": 8974,
      "ĠChernoff": 8975,
      "ĠGM": 8976,
      "Ġindicated": 8977,
      "Ġche": 8978,
      "Ġabsence": 8979,
      "Ġcorrelations": 8980,
      "Ġfs": 8981,
      "ĠSY": 8982,
      "Ġrealizations": 8983,
      "ĠPPENDIX": 8984,
      "cz": 8985,
      "Ġys": 8986,
      "Ġsoon": 8987,
      "rian": 8988,
      "usiness": 8989,
      "Ġtopic": 8990,
      "ĠSal": 8991,
      "represent": 8992,
      "Ġhb": 8993,
      "athan": 8994,
      "Ġdegrad": 8995,
      "Ġprototype": 8996,
      "Ġnuc": 8997,
      "ĠGLn": 8998,
      "ĠChina": 8999,
      "ĠYe": 9000,
      "TIC": 9001,
      "uel": 9002,
      "âĢ¡": 9003,
      "Ġrecords": 9004,
      "Ġfacilit": 9005,
      "Ġremarks": 9006,
      "ĠNSF": 9007,
      "ĠCore": 9008,
      "Exp": 9009,
      "ban": 9010,
      "Ġidentities": 9011,
      "Ġhomeomorphism": 9012,
      "ĠRate": 9013,
      "Ġrectangles": 9014,
      "Ġtens": 9015,
      "ĠRB": 9016,
      "Res": 9017,
      "Ġquotients": 9018,
      "Ġconcerns": 9019,
      "ĠFinding": 9020,
      "Ġ82": 9021,
      "Ġns": 9022,
      "Ġspanned": 9023,
      "ĠALG": 9024,
      "Ġcontracts": 9025,
      "ĠEdge": 9026,
      "1994": 9027,
      "utable": 9028,
      "CLU": 9029,
      "Ġredundancy": 9030,
      "root": 9031,
      "ĠdÎ¸": 9032,
      "ĠTuring": 9033,
      "ĠFm": 9034,
      "exponential": 9035,
      "Ġestablishing": 9036,
      "Ġvec": 9037,
      "rab": 9038,
      "plicit": 9039,
      "adj": 9040,
      "isometric": 9041,
      "Rk": 9042,
      "ĠTV": 9043,
      "ĠLat": 9044,
      "Ġincorrect": 9045,
      "ĠHen": 9046,
      "umps": 9047,
      "mean": 9048,
      "It": 9049,
      "Ëĩ": 9050,
      "Ġts": 9051,
      "ĠMap": 9052,
      "Ġboxes": 9053,
      "Ġinduce": 9054,
      "Ġmostly": 9055,
      "Ġ(#": 9056,
      "ĠLG": 9057,
      "ĠKnow": 9058,
      "Ġdatabases": 9059,
      "Rec": 9060,
      "Ġpf": 9061,
      "Sj": 9062,
      "Ġfinish": 9063,
      "Ġdecidable": 9064,
      "Po": 9065,
      "Ġevol": 9066,
      "Ġbands": 9067,
      "Ġ88": 9068,
      "ĠPK": 9069,
      "Ġparallelism": 9070,
      "Sc": 9071,
      "Ġcommutes": 9072,
      "Ġcommutator": 9073,
      "Ġfv": 9074,
      "ĠProperties": 9075,
      "ĠRules": 9076,
      "chi": 9077,
      "Îµn": 9078,
      "det": 9079,
      "ĠWor": 9080,
      "ĠSTOC": 9081,
      "continuous": 9082,
      "Ġtransmissions": 9083,
      "Ġcaused": 9084,
      "CB": 9085,
      "Ġlot": 9086,
      "ĠCW": 9087,
      "Ln": 9088,
      "ĠSever": 9089,
      "ĠXML": 9090,
      "Ġimpose": 9091,
      "ĠIG": 9092,
      "+âĪŀ": 9093,
      "Ġfeasibility": 9094,
      "ĠNk": 9095,
      "Ġselects": 9096,
      "ĠSb": 9097,
      "ĠVor": 9098,
      "ĠJames": 9099,
      "Ġchord": 9100,
      "rov": 9101,
      "Ġhg": 9102,
      "veys": 9103,
      "Ġrefined": 9104,
      "Ġzn": 9105,
      "uments": 9106,
      "ĠPhysics": 9107,
      "Ġattract": 9108,
      "âĮª": 9109,
      "Ġseparator": 9110,
      "nom": 9111,
      "Ġdiï¬Ģe": 9112,
      "deterministic": 9113,
      "Ġpip": 9114,
      "Ġequally": 9115,
      "ĠFind": 9116,
      "Ġcrypt": 9117,
      "mix": 9118,
      "Ġdemands": 9119,
      "asymptotic": 9120,
      "Ġexecutions": 9121,
      "Ġwire": 9122,
      "Ġtriangular": 9123,
      "Ġmembership": 9124,
      "esian": 9125,
      "Ġamounts": 9126,
      "Ġhop": 9127,
      "Ġsubstituting": 9128,
      "ĠProcesses": 9129,
      ")âĪĨ": 9130,
      "sart": 9131,
      "pler": 9132,
      "Fp": 9133,
      "ĠxT": 9134,
      "Ġdealing": 9135,
      "tz": 9136,
      "Ġedition": 9137,
      "Ġdashed": 9138,
      "ĠUj": 9139,
      "Ġreflect": 9140,
      "Ġconclusions": 9141,
      "Ġlexic": 9142,
      "akov": 9143,
      "128": 9144,
      "Ġunfolding": 9145,
      "Ġadjoint": 9146,
      "Ġdeterminant": 9147,
      "Ġaugmented": 9148,
      "ĠNr": 9149,
      "Ġincoming": 9150,
      "decreasing": 9151,
      "ĠED": 9152,
      "Ġrecovered": 9153,
      "enetic": 9154,
      "Ġvice": 9155,
      "Ġoutgoing": 9156,
      "Ġsearching": 9157,
      "Ġď-": 9158,
      "Ġgrowing": 9159,
      "ĠReal": 9160,
      "Ġcontradicting": 9161,
      "ĠGlobal": 9162,
      "Ġgran": 9163,
      "ĠProv": 9164,
      "Ġultra": 9165,
      "ĠBur": 9166,
      "loading": 9167,
      "Ġsummation": 9168,
      "CTIONS": 9169,
      "Ġparametri": 9170,
      "Ġconserv": 9171,
      "ĠBest": 9172,
      "ĠProt": 9173,
      "Ġ.,": 9174,
      "Ġiid": 9175,
      "ĠRank": 9176,
      "manifold": 9177,
      ":=": 9178,
      "ĠMatching": 9179,
      "symmetric": 9180,
      "itives": 9181,
      "ĠRV": 9182,
      "ĠEvaluation": 9183,
      "Ġcompile": 9184,
      "Ġexploiting": 9185,
      "Ġinterpolation": 9186,
      "|âĪĴ": 9187,
      "Ġfine": 9188,
      "Ġwhence": 9189,
      "Ġhistogram": 9190,
      "awa": 9191,
      "{(": 9192,
      "Ġdesigning": 9193,
      "Ġvalidation": 9194,
      "ighting": 9195,
      "oni": 9196,
      "Ġproduction": 9197,
      "HL": 9198,
      "ĠkG": 9199,
      "ĠEmail": 9200,
      "ĠPx": 9201,
      "ĠWk": 9202,
      "asser": 9203,
      "Ġarchitectures": 9204,
      "Ġnq": 9205,
      "Ġks": 9206,
      "ĠDR": 9207,
      "Ġimplied": 9208,
      "ensus": 9209,
      "eton": 9210,
      "Ġdecompose": 9211,
      "html": 9212,
      "Ġconstructors": 9213,
      "ĠÎ´k": 9214,
      "Ġvt": 9215,
      "Ġxr": 9216,
      "Ġsubproblem": 9217,
      "ðĿĽ": 9218,
      "ĠAccess": 9219,
      "ĠBrownian": 9220,
      "ĠGa": 9221,
      "ĠGt": 9222,
      "Ġrm": 9223,
      "neighbor": 9224,
      "Ġequilibrium": 9225,
      "ĠGv": 9226,
      "Ġregardless": 9227,
      "ĠSil": 9228,
      "uble": 9229,
      "Ġcontracting": 9230,
      "Ġabsolutely": 9231,
      "decomposition": 9232,
      "kens": 9233,
      "Ġsparsif": 9234,
      "Ġbenefits": 9235,
      "ĠPost": 9236,
      "Ġrs": 9237,
      "ĠDSL": 9238,
      "Ġdivisor": 9239,
      "Ġingred": 9240,
      "Yt": 9241,
      "1016": 9242,
      "ĠSd": 9243,
      "Ġmodifications": 9244,
      "mo": 9245,
      "oke": 9246,
      "ĠCre": 9247,
      "ĠKu": 9248,
      "Ġamor": 9249,
      "Ġexhaustive": 9250,
      "Ġimsart": 9251,
      "Ġpassed": 9252,
      "ĠMos": 9253,
      "ypot": 9254,
      "areto": 9255,
      "ĠPriv": 9256,
      "Ġfixing": 9257,
      "Ġrelease": 9258,
      "Ġrectangle": 9259,
      "ĠEmpirical": 9260,
      "input": 9261,
      "orni": 9262,
      "cel": 9263,
      "ĠBernstein": 9264,
      "ĠLB": 9265,
      "ĠMAT": 9266,
      "Ġ:-": 9267,
      "transitive": 9268,
      "Ġparadigm": 9269,
      "Ġregisters": 9270,
      "ĠJavaScript": 9271,
      "Ei": 9272,
      "Ġ)âĪĪ": 9273,
      "ĠHad": 9274,
      "terminal": 9275,
      "Yn": 9276,
      "graphs": 9277,
      "ĠAF": 9278,
      "ĠPb": 9279,
      "ĠRAM": 9280,
      "atil": 9281,
      "coloring": 9282,
      "ĠCSP": 9283,
      "atorics": 9284,
      "Ġagree": 9285,
      "ĠArtificial": 9286,
      "-(": 9287,
      "sized": 9288,
      "Ġcomplementary": 9289,
      "Ġwp": 9290,
      "ĠLang": 9291,
      "ĠðĿĳ¥": 9292,
      "Ġcomprehen": 9293,
      "Ġintuitive": 9294,
      "Ġ1988": 9295,
[...]
